unsigned char mode1_default_quant_tflite[] = {
  0x28, 0x00, 0x00, 0x00, 0x54, 0x46, 0x4c, 0x33, 0x00, 0x00, 0x00, 0x00,
  0x00, 0x00, 0x00, 0x00, 0x00, 0x00, 0x00, 0x00, 0x00, 0x00, 0x12, 0x00,
  0x1c, 0x00, 0x04, 0x00, 0x08, 0x00, 0x0c, 0x00, 0x10, 0x00, 0x14, 0x00,
  0x00, 0x00, 0x18, 0x00, 0x12, 0x00, 0x00, 0x00, 0x03, 0x00, 0x00, 0x00,
  0xc0, 0x2c, 0x00, 0x00, 0x58, 0x21, 0x00, 0x00, 0x40, 0x21, 0x00, 0x00,
  0x3c, 0x00, 0x00, 0x00, 0x04, 0x00, 0x00, 0x00, 0x01, 0x00, 0x00, 0x00,
  0x0c, 0x00, 0x00, 0x00, 0x08, 0x00, 0x0c, 0x00, 0x04, 0x00, 0x08, 0x00,
  0x08, 0x00, 0x00, 0x00, 0x08, 0x00, 0x00, 0x00, 0x1d, 0x00, 0x00, 0x00,
  0x13, 0x00, 0x00, 0x00, 0x6d, 0x69, 0x6e, 0x5f, 0x72, 0x75, 0x6e, 0x74,
  0x69, 0x6d, 0x65, 0x5f, 0x76, 0x65, 0x72, 0x73, 0x69, 0x6f, 0x6e, 0x00,
  0x1e, 0x00, 0x00, 0x00, 0xf0, 0x20, 0x00, 0x00, 0xdc, 0x20, 0x00, 0x00,
  0x80, 0x20, 0x00, 0x00, 0x1c, 0x20, 0x00, 0x00, 0xc8, 0x1f, 0x00, 0x00,
  0x74, 0x1f, 0x00, 0x00, 0x20, 0x1f, 0x00, 0x00, 0xcc, 0x1e, 0x00, 0x00,
  0x78, 0x1e, 0x00, 0x00, 0x24, 0x1e, 0x00, 0x00, 0x10, 0x1e, 0x00, 0x00,
  0xbc, 0x1d, 0x00, 0x00, 0xa8, 0x19, 0x00, 0x00, 0x94, 0x15, 0x00, 0x00,
  0x80, 0x11, 0x00, 0x00, 0x6c, 0x0d, 0x00, 0x00, 0x58, 0x09, 0x00, 0x00,
  0x44, 0x05, 0x00, 0x00, 0x30, 0x01, 0x00, 0x00, 0xdc, 0x00, 0x00, 0x00,
  0xd0, 0x00, 0x00, 0x00, 0xbc, 0x00, 0x00, 0x00, 0xa8, 0x00, 0x00, 0x00,
  0x94, 0x00, 0x00, 0x00, 0x80, 0x00, 0x00, 0x00, 0x6c, 0x00, 0x00, 0x00,
  0x58, 0x00, 0x00, 0x00, 0x44, 0x00, 0x00, 0x00, 0x30, 0x00, 0x00, 0x00,
  0x04, 0x00, 0x00, 0x00, 0xf6, 0xdf, 0xff, 0xff, 0x04, 0x00, 0x00, 0x00,
  0x10, 0x00, 0x00, 0x00, 0x31, 0x2e, 0x35, 0x2e, 0x30, 0x00, 0x00, 0x00,
  0x00, 0x00, 0x00, 0x00, 0x00, 0x00, 0x00, 0x00, 0x00, 0x00, 0x00, 0x00,
  0x00, 0x00, 0x00, 0x00, 0x00, 0x00, 0x00, 0x00, 0x50, 0xd4, 0xff, 0xff,
  0x00, 0x00, 0x00, 0x00, 0x00, 0x00, 0x00, 0x00, 0x00, 0x00, 0x00, 0x00,
  0x60, 0xd4, 0xff, 0xff, 0x00, 0x00, 0x00, 0x00, 0x00, 0x00, 0x00, 0x00,
  0x00, 0x00, 0x00, 0x00, 0x70, 0xd4, 0xff, 0xff, 0x00, 0x00, 0x00, 0x00,
  0x00, 0x00, 0x00, 0x00, 0x00, 0x00, 0x00, 0x00, 0x80, 0xd4, 0xff, 0xff,
  0x00, 0x00, 0x00, 0x00, 0x00, 0x00, 0x00, 0x00, 0x00, 0x00, 0x00, 0x00,
  0x90, 0xd4, 0xff, 0xff, 0x00, 0x00, 0x00, 0x00, 0x00, 0x00, 0x00, 0x00,
  0x00, 0x00, 0x00, 0x00, 0xa0, 0xd4, 0xff, 0xff, 0x00, 0x00, 0x00, 0x00,
  0x00, 0x00, 0x00, 0x00, 0x00, 0x00, 0x00, 0x00, 0xb0, 0xd4, 0xff, 0xff,
  0x00, 0x00, 0x00, 0x00, 0x00, 0x00, 0x00, 0x00, 0x00, 0x00, 0x00, 0x00,
  0xc0, 0xd4, 0xff, 0xff, 0x00, 0x00, 0x00, 0x00, 0x00, 0x00, 0x00, 0x00,
  0x00, 0x00, 0x00, 0x00, 0xd0, 0xd4, 0xff, 0xff, 0x00, 0x00, 0x00, 0x00,
  0xa6, 0xe0, 0xff, 0xff, 0x04, 0x00, 0x00, 0x00, 0x40, 0x00, 0x00, 0x00,
  0x1b, 0xb9, 0x2d, 0xbf, 0x05, 0x06, 0x67, 0xbf, 0x2e, 0x05, 0x5a, 0x3f,
  0x80, 0x20, 0x31, 0x3f, 0xe3, 0x6d, 0x07, 0xbf, 0x4c, 0xed, 0x6e, 0xbf,
  0x45, 0xf8, 0x99, 0xbe, 0xf5, 0x4a, 0x22, 0x40, 0x4f, 0x02, 0x00, 0xbf,
  0x8f, 0x9d, 0x22, 0xbf, 0x83, 0x42, 0x1c, 0x3f, 0xc3, 0x03, 0x99, 0x3f,
  0xc6, 0x40, 0x0b, 0x3f, 0x74, 0xe0, 0x47, 0x3f, 0x62, 0x52, 0x0b, 0x3f,
  0x39, 0x82, 0x5e, 0xbf, 0x00, 0x00, 0x00, 0x00, 0xf6, 0xe0, 0xff, 0xff,
  0x04, 0x00, 0x00, 0x00, 0x00, 0x04, 0x00, 0x00, 0xe9, 0x4e, 0x14, 0x3f,
  0x07, 0x58, 0xae, 0xbd, 0xc7, 0x24, 0xea, 0xbe, 0x65, 0x37, 0xc6, 0x3d,
  0x76, 0xdf, 0x4e, 0xbe, 0x5d, 0xf9, 0xb7, 0x3e, 0xc1, 0xe2, 0x02, 0x3f,
  0xc3, 0x7a, 0x45, 0xbf, 0x4f, 0xab, 0x0f, 0x3f, 0x24, 0xc4, 0xd9, 0xbe,
  0x8a, 0x5c, 0x31, 0x3e, 0x3d, 0x62, 0xe2, 0xbd, 0x61, 0x4e, 0xc1, 0xbe,
  0xec, 0x7b, 0x0b, 0x3f, 0x23, 0x11, 0x60, 0xbe, 0x59, 0x80, 0x80, 0x3d,
  0x4e, 0x37, 0x35, 0x3f, 0x17, 0x1b, 0x0c, 0xbe, 0x9d, 0xcb, 0xe0, 0xbe,
  0x52, 0xcf, 0x66, 0xbd, 0x0f, 0x34, 0x56, 0xbe, 0xb9, 0x44, 0xb6, 0x3e,
  0x7d, 0x56, 0xb7, 0xbd, 0x0e, 0xc4, 0x55, 0xbf, 0x37, 0x0a, 0x78, 0x3f,
  0x31, 0x6b, 0x05, 0xbf, 0x73, 0xdd, 0x30, 0x3f, 0x14, 0xeb, 0x7c, 0xbe,
  0x51, 0xea, 0x02, 0x3d, 0x49, 0x73, 0x35, 0x3f, 0x0b, 0xd8, 0x95, 0x3e,
  0x89, 0xf7, 0x08, 0xbf, 0xf1, 0xe9, 0x71, 0xbe, 0x84, 0x5d, 0x03, 0xbf,
  0x97, 0x21, 0x8d, 0xbe, 0xd3, 0xdf, 0x59, 0x3d, 0xe8, 0x2b, 0xb1, 0xbe,
  0x6c, 0x27, 0xbe, 0xbe, 0xfc, 0xfb, 0x97, 0x3e, 0x8e, 0x59, 0x83, 0x3f,
  0xd0, 0xe9, 0x89, 0xbd, 0x6d, 0xf3, 0xad, 0x3e, 0x81, 0xcf, 0x55, 0xbe,
  0x0b, 0xee, 0x01, 0x3f, 0xac, 0x6d, 0x8a, 0x3d, 0xce, 0x26, 0xf4, 0x3d,
  0xd2, 0xf8, 0x44, 0xbf, 0x53, 0x47, 0x9e, 0xbe, 0x79, 0x0b, 0xea, 0xbe,
  0x65, 0xc4, 0x33, 0x3e, 0x79, 0x01, 0x33, 0x3e, 0x91, 0x72, 0x6b, 0xbf,
  0xfb, 0x3b, 0x94, 0xbe, 0x8e, 0xf7, 0x85, 0x3e, 0x39, 0x95, 0xab, 0x3d,
  0xd7, 0xd2, 0x55, 0x3e, 0xe1, 0xd8, 0x14, 0xbe, 0x18, 0x48, 0xfd, 0x3e,
  0x22, 0x0c, 0x8a, 0xbe, 0x9e, 0x58, 0x09, 0xbf, 0x85, 0xc0, 0x1c, 0x3f,
  0x64, 0x38, 0xeb, 0x3e, 0x2f, 0x87, 0xc7, 0xbd, 0xe6, 0xfd, 0x1e, 0x3f,
  0x4b, 0x2e, 0x9f, 0x3e, 0x09, 0x81, 0xc5, 0x3e, 0xfc, 0x87, 0x59, 0x3e,
  0xad, 0x31, 0xe5, 0x3d, 0x1f, 0x9b, 0x89, 0xbd, 0x81, 0x3c, 0x90, 0xbe,
  0xf5, 0x64, 0xc0, 0x3e, 0xeb, 0xe4, 0x3a, 0xbf, 0xfb, 0x91, 0xd5, 0x3e,
  0x11, 0xcd, 0xc8, 0xbe, 0xb5, 0x0a, 0x10, 0x3e, 0xe5, 0x19, 0xd8, 0x3e,
  0x65, 0x04, 0xd3, 0xbe, 0x28, 0x4e, 0x2c, 0x3f, 0xa3, 0x9e, 0xde, 0x3e,
  0x19, 0x0c, 0x0d, 0xbf, 0x2c, 0x84, 0x9e, 0xbd, 0xc9, 0x2d, 0xf6, 0x3d,
  0x3f, 0x5f, 0xf9, 0xba, 0xaf, 0x1f, 0x27, 0x3e, 0x96, 0x0b, 0x82, 0xbd,
  0x89, 0x73, 0x56, 0x3d, 0x5a, 0xbb, 0xfd, 0x3e, 0x2d, 0x60, 0xc0, 0xbe,
  0x42, 0xa1, 0xcd, 0x3e, 0xd5, 0xdc, 0xd9, 0xbe, 0x4b, 0x05, 0xa7, 0x3e,
  0xf5, 0x52, 0xe8, 0xbe, 0x3b, 0x59, 0x04, 0xbe, 0xee, 0x49, 0xf4, 0xbe,
  0xb8, 0xfc, 0x0a, 0x3e, 0xa6, 0x44, 0x62, 0xbe, 0xd8, 0x7f, 0x8d, 0xbd,
  0x55, 0x77, 0xdc, 0xbe, 0x00, 0x01, 0xab, 0xbe, 0xac, 0x9a, 0x01, 0xbf,
  0xb9, 0x41, 0xa3, 0xbe, 0xc2, 0x30, 0x8f, 0xbe, 0xe5, 0xea, 0xfe, 0x3d,
  0xc9, 0xaf, 0x5e, 0x3e, 0xdd, 0xcd, 0xaf, 0xbc, 0x4e, 0xaa, 0xc5, 0xbe,
  0xa4, 0xef, 0x03, 0xbe, 0x51, 0x0f, 0x61, 0x3e, 0xed, 0x22, 0xb5, 0xbe,
  0xba, 0x0b, 0xdf, 0xbe, 0x8a, 0xb4, 0xc9, 0xbe, 0xbb, 0xf1, 0x80, 0x3e,
  0xaf, 0xa0, 0x45, 0x3f, 0x00, 0x7c, 0x14, 0x3c, 0xd9, 0x58, 0x9e, 0xbe,
  0x92, 0x1c, 0x72, 0x3e, 0x11, 0xbf, 0x71, 0xbe, 0xe0, 0x89, 0x99, 0xbe,
  0x4c, 0x41, 0xb1, 0x3d, 0x16, 0xab, 0xd2, 0xbe, 0x16, 0x96, 0x0a, 0xbe,
  0xb1, 0x10, 0xef, 0xbe, 0x07, 0x34, 0xa3, 0xbe, 0x3e, 0x32, 0x7a, 0x3e,
  0x98, 0xba, 0x43, 0x3d, 0x6f, 0x04, 0xa6, 0xbf, 0xc2, 0x39, 0xf6, 0x39,
  0xfd, 0x89, 0xab, 0xbe, 0x67, 0xbb, 0x0b, 0x3e, 0x6e, 0x02, 0x26, 0xbe,
  0x09, 0x20, 0x28, 0xbe, 0x43, 0x6a, 0x15, 0x3c, 0x9a, 0x89, 0x03, 0xbf,
  0x99, 0x0a, 0xbf, 0x3e, 0x6a, 0xab, 0x87, 0x3e, 0xb7, 0xb3, 0x2a, 0xbf,
  0x4d, 0x70, 0x37, 0x3f, 0x9e, 0x0c, 0xf4, 0xbe, 0x27, 0x3b, 0xad, 0x3e,
  0x92, 0xfc, 0x2b, 0xbe, 0x59, 0xf0, 0x6b, 0xbe, 0x27, 0x6d, 0xec, 0x3e,
  0x6d, 0x2e, 0xbe, 0x3e, 0x31, 0xec, 0x84, 0xbe, 0x50, 0x1a, 0xb4, 0x3e,
  0x91, 0x9a, 0x27, 0xbe, 0x2c, 0x39, 0xa3, 0xbe, 0x9e, 0xe6, 0xf7, 0xbd,
  0x0a, 0x78, 0x15, 0xbe, 0xfb, 0xd7, 0xb0, 0x3e, 0x90, 0x2d, 0x34, 0x3f,
  0x1d, 0xc4, 0x6b, 0xbf, 0xd6, 0xbf, 0x98, 0x3f, 0x3f, 0x5c, 0x23, 0xbf,
  0x82, 0xae, 0x0a, 0x3f, 0xdd, 0x86, 0x27, 0xbe, 0xc4, 0xb1, 0x8d, 0xbd,
  0x54, 0x03, 0xf4, 0x3e, 0x41, 0xd0, 0xcd, 0x3e, 0x94, 0xea, 0x47, 0xbf,
  0x43, 0x80, 0xbe, 0xbe, 0x07, 0xf0, 0xe5, 0xbc, 0x8e, 0xa4, 0x01, 0x3e,
  0x5d, 0x3f, 0x5b, 0x3e, 0x8a, 0x70, 0xad, 0x3e, 0x0b, 0x41, 0x5b, 0xbd,
  0xbb, 0x90, 0xc6, 0xbe, 0x4e, 0x72, 0x90, 0x3e, 0xf9, 0xa2, 0x67, 0xbe,
  0xdb, 0x82, 0xb3, 0xbd, 0xd2, 0xc1, 0x60, 0xbd, 0x6f, 0x4c, 0xca, 0x3e,
  0xe8, 0xad, 0x06, 0x3f, 0x28, 0x6d, 0x43, 0x3e, 0xcf, 0xc7, 0xb1, 0x3e,
  0xea, 0x70, 0x16, 0x3f, 0xe4, 0x34, 0x07, 0xbf, 0x01, 0xb8, 0x8b, 0x3e,
  0x27, 0x54, 0x92, 0xbd, 0x2e, 0xb1, 0x8d, 0x3e, 0x6f, 0xb2, 0x60, 0x3e,
  0x4d, 0x04, 0xe1, 0x3e, 0x59, 0xbd, 0x30, 0xbe, 0xa4, 0x56, 0x4f, 0x3f,
  0x01, 0xf8, 0x03, 0xbf, 0x77, 0xce, 0xcf, 0x3e, 0xb8, 0xd0, 0x11, 0x3f,
  0x42, 0x85, 0x89, 0x3e, 0x88, 0xc4, 0x8c, 0x3f, 0x83, 0x62, 0x05, 0x3f,
  0x7f, 0xe7, 0x85, 0xbd, 0x43, 0x15, 0x09, 0x3f, 0x99, 0xab, 0xec, 0x3e,
  0x96, 0xb5, 0x9f, 0xbe, 0x63, 0x53, 0xa9, 0x3d, 0x5e, 0x2a, 0xa5, 0x3e,
  0xbb, 0xbc, 0x9a, 0x3d, 0xe5, 0x7c, 0xa2, 0xbe, 0x2a, 0xc5, 0x65, 0xbe,
  0x80, 0x2c, 0x2f, 0xbf, 0x9b, 0x50, 0xe2, 0x3e, 0xfb, 0x9d, 0x64, 0xbf,
  0x11, 0xe8, 0xbc, 0x3e, 0xa2, 0x31, 0x81, 0xbe, 0x58, 0xa1, 0x07, 0x3f,
  0x5e, 0x21, 0x12, 0xbf, 0x5e, 0x36, 0x85, 0xbf, 0x5a, 0x8b, 0xae, 0x3e,
  0x14, 0x95, 0xa4, 0x3e, 0x4b, 0xdd, 0xd9, 0x3e, 0x64, 0x5f, 0x78, 0xbe,
  0x95, 0xfd, 0x4c, 0x3e, 0x08, 0x8e, 0x93, 0xbe, 0x3a, 0xd8, 0x58, 0x3e,
  0xf4, 0x2a, 0xec, 0xbe, 0xa5, 0xbb, 0xc5, 0xbe, 0xe1, 0xe1, 0xcf, 0x3e,
  0xa0, 0xb9, 0x77, 0xbf, 0x5c, 0xa2, 0x95, 0x3e, 0x3c, 0x4d, 0x8c, 0xbe,
  0x5c, 0x28, 0x1d, 0x3f, 0xff, 0x0f, 0xf8, 0xbe, 0xdb, 0xec, 0xfe, 0xbe,
  0x14, 0xaa, 0xb0, 0x3e, 0x0c, 0xab, 0x53, 0x3d, 0xb0, 0x4a, 0x87, 0xbe,
  0x1f, 0xf5, 0x9b, 0x3e, 0x38, 0x74, 0x19, 0xbf, 0x13, 0xa0, 0xa4, 0xbe,
  0xa0, 0x3e, 0x0d, 0x3d, 0xec, 0xf2, 0x7d, 0xbe, 0x5e, 0x95, 0x39, 0x3f,
  0xeb, 0xd2, 0x07, 0xbf, 0x23, 0x0e, 0x2f, 0x3e, 0x1e, 0x0f, 0x03, 0xbe,
  0xa8, 0x08, 0x54, 0x3e, 0x80, 0x33, 0x34, 0xbf, 0xd1, 0xf8, 0x65, 0xbe,
  0xd9, 0x03, 0xb9, 0xbe, 0xe0, 0x24, 0x12, 0x3f, 0x6b, 0x9e, 0x3b, 0x3f,
  0x00, 0x06, 0xdb, 0x3e, 0xcc, 0x66, 0x2b, 0xbd, 0x8a, 0x23, 0x51, 0x3e,
  0xd3, 0xc5, 0x23, 0xbf, 0xcd, 0x41, 0xa3, 0x3d, 0x4f, 0xd0, 0x20, 0xbe,
  0xfa, 0x44, 0x72, 0xbf, 0xad, 0x1c, 0xfc, 0x3e, 0x40, 0x3e, 0xd3, 0xbe,
  0xb6, 0x3c, 0x89, 0x3e, 0xd8, 0x4d, 0x34, 0xbf, 0xa8, 0xab, 0xaf, 0x3d,
  0x76, 0x3d, 0xea, 0x3e, 0x36, 0xe2, 0xa7, 0x3e, 0xf7, 0xad, 0x3c, 0xbf,
  0x00, 0x00, 0x00, 0x00, 0x06, 0xe5, 0xff, 0xff, 0x04, 0x00, 0x00, 0x00,
  0x00, 0x04, 0x00, 0x00, 0x23, 0xf1, 0xe6, 0x3e, 0x58, 0xe7, 0x82, 0xbf,
  0x74, 0xc2, 0x20, 0x3f, 0xa7, 0xba, 0x50, 0xbf, 0xb5, 0x47, 0x23, 0x3f,
  0xbe, 0xf2, 0xab, 0xbf, 0x91, 0xcc, 0x17, 0x3f, 0x7d, 0x6c, 0x5c, 0x3f,
  0x89, 0x7f, 0x93, 0x3e, 0x64, 0x1c, 0x49, 0xbf, 0x27, 0xba, 0x83, 0x3e,
  0xc3, 0xc6, 0xe8, 0xbe, 0x62, 0x94, 0x4c, 0xbe, 0x80, 0x6e, 0x38, 0xbf,
  0x40, 0x8b, 0xb4, 0x3e, 0x76, 0x4e, 0x12, 0xbe, 0x66, 0x20, 0xbf, 0xbe,
  0x5a, 0xbb, 0xf9, 0x3e, 0xc6, 0x8b, 0x17, 0xba, 0xa3, 0x45, 0x7f, 0xbe,
  0xc0, 0x45, 0x75, 0x3e, 0x39, 0xa1, 0x88, 0x3e, 0x4a, 0x02, 0x10, 0x3e,
  0xf3, 0x1f, 0xb4, 0xbe, 0x60, 0x3c, 0x89, 0xbe, 0xb3, 0xe2, 0xe1, 0x3d,
  0x6f, 0x83, 0xf0, 0xbe, 0x99, 0xee, 0x04, 0xbf, 0xbe, 0x60, 0x0e, 0xbf,
  0x0e, 0xac, 0x50, 0x3f, 0xcc, 0x1f, 0xa3, 0xbe, 0x18, 0x41, 0x0f, 0xbe,
  0xa9, 0x55, 0xd5, 0xbe, 0xbd, 0x43, 0x80, 0x3e, 0x80, 0xb9, 0xb2, 0xbe,
  0x0e, 0x41, 0xbd, 0xbd, 0x2a, 0x03, 0x08, 0xbe, 0x9c, 0x53, 0xbb, 0xbd,
  0xd3, 0x04, 0x86, 0x3e, 0x50, 0xbf, 0xb7, 0xbe, 0x3b, 0xfc, 0xed, 0xbe,
  0x31, 0xa6, 0x82, 0xbe, 0x93, 0xb2, 0xb9, 0xbd, 0x66, 0x9e, 0xbc, 0xbe,
  0xa8, 0xd1, 0x67, 0xbe, 0xec, 0x21, 0xd5, 0xbe, 0x15, 0x51, 0x9d, 0x3e,
  0x12, 0x2e, 0xb3, 0xbe, 0xd3, 0xf3, 0xbe, 0x3e, 0xa4, 0x80, 0x26, 0xbe,
  0x81, 0xa2, 0x64, 0x3d, 0x15, 0xda, 0x24, 0x3e, 0xd4, 0x63, 0x9c, 0x3d,
  0x7a, 0x7d, 0x69, 0x3e, 0x57, 0xa6, 0x44, 0x3e, 0x44, 0x8a, 0x4f, 0xbd,
  0x23, 0x34, 0xdd, 0xbe, 0x55, 0x9b, 0x0c, 0x3e, 0xea, 0xf9, 0x12, 0x3e,
  0x91, 0x1a, 0x15, 0x3e, 0x65, 0x65, 0x97, 0x3e, 0x48, 0xd1, 0xc1, 0x3d,
  0x4b, 0xd6, 0x18, 0xbf, 0x75, 0x09, 0x27, 0xbf, 0x77, 0xb0, 0x65, 0xbe,
  0x87, 0x2e, 0x22, 0xbd, 0x4c, 0x1a, 0xd8, 0x3c, 0xa8, 0xd6, 0x0a, 0xbe,
  0x6b, 0x0b, 0x05, 0xbc, 0x8e, 0x4c, 0x55, 0x3e, 0xf9, 0x1a, 0xde, 0x3e,
  0x41, 0x28, 0x89, 0xbd, 0x76, 0x48, 0x57, 0xbe, 0x83, 0xed, 0x2c, 0xbe,
  0x22, 0xe2, 0x95, 0xbd, 0x4d, 0x42, 0x96, 0x3d, 0x52, 0x51, 0x9f, 0x3d,
  0x90, 0xae, 0xca, 0x3e, 0xe5, 0x76, 0xd7, 0xbe, 0x6b, 0x74, 0x1b, 0xbf,
  0x93, 0x25, 0xb2, 0xbe, 0xf7, 0x68, 0x9d, 0x3e, 0xe9, 0xa9, 0xbc, 0xbe,
  0x1e, 0xe9, 0x21, 0x3d, 0x45, 0xcc, 0xc4, 0xbe, 0x50, 0xb9, 0x87, 0xbd,
  0x1c, 0x7d, 0xda, 0xbd, 0xd6, 0xe1, 0xba, 0x3c, 0x31, 0x20, 0x62, 0xbe,
  0x9f, 0x24, 0xb6, 0xbe, 0x8d, 0x4a, 0xcf, 0xbe, 0xdd, 0x22, 0xc1, 0xbe,
  0x53, 0x16, 0x60, 0x3e, 0xb7, 0xb1, 0xa0, 0xbe, 0xd3, 0xe4, 0xa1, 0x3d,
  0xf8, 0xf2, 0xf0, 0xbc, 0x9e, 0x07, 0x5b, 0xbc, 0x62, 0xf0, 0x62, 0x3e,
  0x7d, 0x5c, 0x1c, 0xbe, 0x67, 0x35, 0x8f, 0xbe, 0x90, 0x97, 0x04, 0x3e,
  0x2e, 0xb7, 0x0e, 0x3e, 0x3c, 0xfb, 0x08, 0x3f, 0x8b, 0x61, 0x9b, 0xbe,
  0xc4, 0x87, 0x69, 0xbe, 0x06, 0xc7, 0xdc, 0xbe, 0x97, 0x0c, 0xb6, 0xbe,
  0x03, 0xe8, 0x36, 0xbd, 0x62, 0xf9, 0x69, 0xbe, 0x83, 0x88, 0xe3, 0x3e,
  0x3d, 0x0a, 0x64, 0xbc, 0x98, 0x5a, 0xf7, 0xbe, 0x51, 0xa8, 0x53, 0xbe,
  0x87, 0x4a, 0x9f, 0x3e, 0xca, 0x17, 0xce, 0x3e, 0xd8, 0xc3, 0x0c, 0xbf,
  0xff, 0x39, 0x08, 0xbf, 0xc2, 0x9c, 0xe8, 0xbe, 0xd9, 0x1c, 0xd2, 0xbe,
  0x8b, 0xf0, 0x86, 0xbf, 0x4a, 0x49, 0x2a, 0xbe, 0x9b, 0xe8, 0x0b, 0x3e,
  0x50, 0x4d, 0xe1, 0x3e, 0x04, 0x66, 0x3b, 0x3e, 0x15, 0x09, 0xd7, 0x3d,
  0x5b, 0x8b, 0x03, 0xbf, 0x7c, 0xd0, 0x11, 0xbf, 0x78, 0x25, 0x7e, 0xbe,
  0x3b, 0x26, 0x96, 0xbe, 0xd5, 0x7b, 0x0c, 0x3f, 0x45, 0xea, 0xda, 0xbe,
  0x2a, 0x11, 0x07, 0x3e, 0xaa, 0x49, 0xb8, 0x3f, 0xa2, 0x01, 0x0b, 0xbe,
  0xbf, 0x0e, 0xb4, 0x3e, 0xb3, 0xb5, 0xed, 0x3e, 0x20, 0x7f, 0x31, 0xbe,
  0x63, 0x7f, 0x69, 0x3e, 0x9b, 0x7b, 0x91, 0xbe, 0xcb, 0x25, 0xa6, 0x3e,
  0x49, 0x98, 0xd1, 0xbd, 0xf7, 0xf1, 0x42, 0x3c, 0x1d, 0x6a, 0xf0, 0xbe,
  0xb7, 0x31, 0x50, 0xbe, 0x51, 0xc7, 0xac, 0x3e, 0x2e, 0xbb, 0x7c, 0x3f,
  0xc8, 0x6d, 0x86, 0x3e, 0xa6, 0xc8, 0x3b, 0xbf, 0x48, 0x24, 0xcc, 0xbf,
  0x09, 0xdb, 0x2c, 0xbe, 0xce, 0x11, 0x93, 0xbf, 0x52, 0x2f, 0x34, 0xbf,
  0xa0, 0x78, 0x5c, 0x3e, 0x25, 0x66, 0x40, 0x3f, 0xa5, 0x0a, 0xc1, 0x3e,
  0x46, 0xa7, 0xdc, 0x3e, 0x35, 0xbd, 0xf2, 0x3e, 0xa7, 0x70, 0x5f, 0xbf,
  0xa7, 0x08, 0xf5, 0xbe, 0xbe, 0x16, 0xf1, 0xbe, 0x08, 0xe9, 0x71, 0xbe,
  0x9d, 0x61, 0xa7, 0x3e, 0x6f, 0x51, 0xa2, 0xbe, 0x15, 0x2f, 0x8b, 0xbe,
  0x6f, 0x0b, 0x4c, 0x3e, 0x64, 0x50, 0x3b, 0xbe, 0x8a, 0xcc, 0x0d, 0x3f,
  0x86, 0x91, 0xb3, 0x3e, 0x36, 0xa0, 0xff, 0xbd, 0x0d, 0x70, 0xac, 0xbe,
  0x63, 0x37, 0xf5, 0xbe, 0x88, 0xff, 0x18, 0x3e, 0xe9, 0xdb, 0x3b, 0x3e,
  0x01, 0x48, 0xb4, 0x3e, 0x66, 0xb5, 0xa6, 0xbd, 0x1f, 0x84, 0x15, 0xbf,
  0x18, 0xcd, 0xa2, 0xbe, 0xe3, 0xd8, 0x64, 0xbe, 0xeb, 0xad, 0xbb, 0xbe,
  0xfb, 0x59, 0x23, 0xbe, 0xbe, 0x3d, 0x9f, 0xbe, 0x92, 0x52, 0x30, 0xbe,
  0x26, 0x76, 0xd0, 0x3e, 0x34, 0x06, 0xc2, 0xbe, 0x46, 0x3e, 0xdc, 0xbe,
  0xd8, 0x60, 0x73, 0x3e, 0x75, 0x3a, 0xa5, 0x3e, 0x85, 0x4b, 0x17, 0x3f,
  0xe1, 0x2c, 0x5e, 0xbe, 0x2c, 0xa2, 0xd7, 0x3e, 0x9d, 0x68, 0xc0, 0xbe,
  0x9f, 0xf8, 0x28, 0xbf, 0x87, 0xc1, 0x80, 0x3e, 0xb5, 0xed, 0xea, 0x3d,
  0x5f, 0x45, 0xbf, 0xbe, 0xf9, 0x2a, 0xa6, 0xbe, 0x0c, 0x3e, 0x2e, 0x3f,
  0xf5, 0x45, 0xd7, 0x3e, 0x20, 0x0e, 0xb1, 0xbd, 0x16, 0x29, 0x42, 0x3e,
  0x21, 0x80, 0x9e, 0xbe, 0x2c, 0x2b, 0x29, 0x3e, 0x35, 0x28, 0xe4, 0xbe,
  0x39, 0x3f, 0x09, 0xbe, 0x48, 0x38, 0x95, 0xbe, 0x5f, 0xe0, 0x3e, 0x3f,
  0x67, 0x2e, 0x04, 0xbf, 0x17, 0x93, 0xf3, 0xbd, 0x10, 0xf0, 0xe5, 0x3c,
  0x08, 0xdf, 0x11, 0xbe, 0xeb, 0x7e, 0x19, 0x3f, 0x73, 0x87, 0xa6, 0xbf,
  0xa6, 0xe3, 0x90, 0x3f, 0xa8, 0xaa, 0x94, 0xbf, 0x8d, 0x8f, 0x67, 0xbd,
  0x2d, 0x35, 0xa7, 0xbf, 0x5e, 0x3b, 0x80, 0x3e, 0xd3, 0xce, 0xbc, 0x3e,
  0x06, 0xa9, 0x30, 0x3f, 0x83, 0x00, 0x1e, 0x3e, 0xd3, 0x8e, 0x69, 0x3e,
  0x22, 0xde, 0x46, 0x3e, 0xc9, 0x2f, 0x82, 0xbe, 0x1c, 0x78, 0xef, 0x3e,
  0x5e, 0xb2, 0x19, 0x3e, 0xe3, 0xb2, 0x5c, 0xbc, 0xd0, 0xf9, 0x58, 0x3c,
  0xae, 0xea, 0x05, 0xbf, 0xa7, 0xce, 0x38, 0x3f, 0x7c, 0x23, 0xc8, 0xbf,
  0xf6, 0xfd, 0x9e, 0x3e, 0xa6, 0xb5, 0x0a, 0x3f, 0xb5, 0x25, 0x3c, 0x3e,
  0x65, 0xbf, 0xc9, 0xbe, 0xa6, 0x57, 0x9a, 0x3d, 0x1f, 0xbf, 0x00, 0xbe,
  0x96, 0x04, 0xcd, 0xbe, 0x59, 0x55, 0xcb, 0xbe, 0x75, 0xa9, 0x9f, 0x3c,
  0x63, 0x80, 0x64, 0x3e, 0x16, 0xc3, 0xb8, 0xbe, 0x08, 0xae, 0xfb, 0x3d,
  0x15, 0xa7, 0x9c, 0xbe, 0x84, 0x13, 0x71, 0xbc, 0x4d, 0x96, 0x06, 0x3d,
  0x44, 0x45, 0xd2, 0xbe, 0x29, 0x72, 0x21, 0x3e, 0x3f, 0x45, 0x11, 0xbf,
  0xcc, 0x19, 0x59, 0x3e, 0x08, 0xf2, 0x71, 0x3f, 0x43, 0x39, 0x9a, 0x3e,
  0x97, 0x83, 0x1f, 0x3e, 0xfd, 0xd7, 0x1a, 0x3f, 0x9d, 0xa9, 0x17, 0x3f,
  0x5a, 0x15, 0x60, 0xbe, 0x20, 0xcc, 0xb5, 0x3e, 0x00, 0x00, 0x00, 0x00,
  0x16, 0xe9, 0xff, 0xff, 0x04, 0x00, 0x00, 0x00, 0x00, 0x04, 0x00, 0x00,
  0x35, 0x4c, 0xdb, 0xbe, 0x6d, 0xde, 0xb9, 0xbe, 0x54, 0x63, 0xca, 0x3d,
  0xeb, 0x06, 0xc5, 0xbd, 0xf6, 0x7c, 0x1c, 0x3e, 0xff, 0x45, 0x60, 0xbe,
  0x3d, 0x31, 0x7e, 0xbe, 0xd2, 0xce, 0xac, 0x3e, 0x01, 0xc7, 0x0a, 0xbe,
  0x42, 0x0a, 0x5a, 0xbe, 0x6a, 0x20, 0x31, 0x3e, 0xa6, 0x15, 0xf3, 0x3c,
  0x60, 0xc6, 0x80, 0x3e, 0xef, 0x66, 0x43, 0xbe, 0xae, 0x8c, 0xd0, 0xbe,
  0xe2, 0x60, 0xeb, 0xbe, 0x50, 0xbf, 0xea, 0x3e, 0xaa, 0xe2, 0x62, 0x3e,
  0x52, 0x09, 0xcf, 0x3e, 0x70, 0x0f, 0x30, 0xbe, 0x1e, 0xf3, 0x32, 0x3e,
  0x8e, 0x93, 0xf7, 0x3e, 0xe2, 0xc1, 0x8f, 0xbf, 0x06, 0x53, 0x5d, 0x3e,
  0x95, 0xe9, 0x4c, 0x3e, 0x60, 0x4f, 0xb0, 0xbe, 0x80, 0x6f, 0x87, 0xbf,
  0x04, 0x41, 0x8f, 0x3e, 0xee, 0x09, 0x1c, 0x3f, 0x40, 0x6c, 0x56, 0x3e,
  0x47, 0xdf, 0x89, 0xbe, 0x7f, 0xc3, 0x3d, 0xbe, 0xdb, 0xca, 0xa6, 0xbe,
  0x92, 0x2f, 0x02, 0x3f, 0xfc, 0x0e, 0xb1, 0x3d, 0x4e, 0x6b, 0xb1, 0x3d,
  0xa5, 0x58, 0x3b, 0x3d, 0xa1, 0x8d, 0x8f, 0xbe, 0x7c, 0xa2, 0x08, 0x3d,
  0x94, 0x34, 0x9a, 0xbe, 0x41, 0x46, 0x08, 0x3f, 0x68, 0xa6, 0x90, 0xbe,
  0x23, 0xce, 0xb7, 0x3e, 0xda, 0x85, 0x00, 0xbf, 0x0b, 0x6a, 0x9f, 0x3e,
  0xf5, 0xfa, 0xbd, 0xbe, 0x96, 0x38, 0x8e, 0xbe, 0xd6, 0x9d, 0x20, 0x3f,
  0xab, 0x10, 0xf2, 0x3e, 0x3f, 0xe5, 0x09, 0xbf, 0x85, 0x69, 0x5f, 0xbe,
  0x0b, 0x66, 0x41, 0xbf, 0x38, 0x5a, 0x2a, 0x3d, 0x70, 0x7c, 0xfe, 0xbd,
  0x8c, 0xaf, 0x45, 0xbd, 0x1f, 0x4c, 0x11, 0xbf, 0xdb, 0xcb, 0x74, 0x3e,
  0xb4, 0xd6, 0x9e, 0x3d, 0x1a, 0x47, 0xd3, 0x3f, 0x7b, 0x70, 0x08, 0x3f,
  0xb6, 0xbe, 0x45, 0x3d, 0xf6, 0xa1, 0xb1, 0x3e, 0x61, 0x64, 0x9b, 0x3e,
  0x67, 0x7a, 0x3a, 0x3d, 0x17, 0x3c, 0xf5, 0xbe, 0x24, 0xf5, 0x63, 0xbf,
  0x62, 0xb7, 0xd2, 0x3e, 0x72, 0xbd, 0x57, 0x3d, 0x10, 0x80, 0x03, 0x3f,
  0x25, 0x75, 0x95, 0x3e, 0xbe, 0xd6, 0xb5, 0x3d, 0xbf, 0xa2, 0xa5, 0x3d,
  0x88, 0xdb, 0x15, 0xbf, 0xa4, 0x2c, 0xbd, 0xbe, 0x89, 0x96, 0xa8, 0xbe,
  0xae, 0xc3, 0x93, 0x3c, 0xae, 0xf5, 0x87, 0x3f, 0x0a, 0x07, 0x87, 0x3f,
  0x62, 0xb7, 0x54, 0xbd, 0x47, 0x10, 0x83, 0xbe, 0xa2, 0x30, 0x97, 0x3d,
  0x93, 0x9e, 0x6a, 0x3d, 0x22, 0x0a, 0x04, 0x3e, 0x1e, 0xde, 0x00, 0xbf,
  0x6d, 0xd9, 0xb8, 0xbe, 0xfc, 0xce, 0xd0, 0xbe, 0x43, 0xa4, 0x84, 0xbd,
  0x7d, 0x3f, 0x14, 0xc0, 0xae, 0xbf, 0xce, 0xbd, 0x1b, 0x01, 0x6b, 0xbe,
  0xd2, 0x7a, 0x8b, 0x3f, 0x14, 0x21, 0xd6, 0xbd, 0xd0, 0xf9, 0x77, 0x3d,
  0x0b, 0x95, 0x9a, 0x3e, 0xfa, 0x01, 0x05, 0xbe, 0xc6, 0x87, 0x6f, 0xbe,
  0x71, 0xeb, 0xc6, 0x3e, 0xcf, 0xfb, 0x81, 0xbe, 0xbe, 0xef, 0x6f, 0xbe,
  0x88, 0x2a, 0x4e, 0xbf, 0x39, 0xbd, 0x7b, 0x3e, 0xe7, 0x54, 0xa9, 0x3e,
  0xa7, 0x33, 0x29, 0xbf, 0x56, 0xdc, 0x1c, 0xbf, 0x8a, 0x7e, 0x8b, 0xbe,
  0xfe, 0x98, 0x08, 0xbe, 0x99, 0x5c, 0xa2, 0x3d, 0x79, 0xdc, 0x8c, 0x3e,
  0x33, 0xe4, 0x1a, 0xbc, 0xa5, 0x7c, 0xde, 0x3e, 0xcf, 0x0a, 0x4c, 0x3e,
  0x4f, 0x7c, 0x40, 0xbe, 0x3b, 0x51, 0x0c, 0x3e, 0x6a, 0x06, 0x97, 0x3c,
  0x6e, 0x5a, 0x55, 0xbe, 0x45, 0x3c, 0x42, 0x3f, 0x85, 0xa0, 0xa5, 0xbc,
  0x97, 0xd2, 0x89, 0xbe, 0xd3, 0x73, 0x43, 0x3f, 0x48, 0xe6, 0xdc, 0x3e,
  0x48, 0x56, 0x3a, 0x3d, 0xa4, 0x8c, 0x89, 0xbd, 0x2e, 0x33, 0xb1, 0x3f,
  0xdf, 0x52, 0x73, 0xbf, 0x2d, 0xcb, 0x24, 0xbf, 0x0f, 0xd0, 0x8e, 0xbf,
  0xd6, 0xc7, 0xc6, 0xbe, 0x30, 0x3b, 0x85, 0xbe, 0xb0, 0xc2, 0xdf, 0x3d,
  0xc3, 0xc7, 0xc3, 0xbd, 0xe9, 0x56, 0xd2, 0x3e, 0x31, 0x37, 0x89, 0x3e,
  0x04, 0xc4, 0x13, 0xbf, 0xcf, 0xc0, 0xc7, 0xbe, 0xf1, 0xaf, 0xe2, 0x3e,
  0xc1, 0x45, 0x83, 0x3d, 0x82, 0xe3, 0x8a, 0x3d, 0x0a, 0x84, 0xd1, 0xbe,
  0x16, 0xc9, 0xd7, 0x3e, 0x68, 0x0c, 0x73, 0xbe, 0xde, 0x2a, 0x86, 0xbe,
  0x83, 0x81, 0xe3, 0xbd, 0xf3, 0xb6, 0x38, 0xbe, 0x10, 0xdc, 0xaa, 0x3e,
  0x4d, 0x34, 0xa9, 0xbc, 0x8b, 0x94, 0xf4, 0xbe, 0x96, 0x0d, 0xcf, 0xbe,
  0x87, 0xdc, 0xe1, 0x3e, 0xa7, 0xed, 0x94, 0xbe, 0x47, 0x2e, 0xfb, 0x3d,
  0xa6, 0xe2, 0x74, 0x3e, 0x9a, 0xb5, 0x8b, 0x3e, 0x1a, 0x81, 0x4e, 0xbe,
  0x30, 0xde, 0xfb, 0xbd, 0x87, 0x9f, 0x4d, 0xbe, 0x2b, 0xbb, 0xf0, 0x3e,
  0x56, 0x07, 0x2f, 0xbf, 0x91, 0x58, 0xc0, 0x3e, 0xe0, 0x18, 0x89, 0x3e,
  0xb2, 0x12, 0x71, 0x3e, 0xe9, 0x2c, 0x61, 0xbe, 0x75, 0xf7, 0x17, 0x3f,
  0xe5, 0x34, 0xaa, 0x3d, 0x06, 0x33, 0x75, 0x3e, 0x03, 0x12, 0x2a, 0xbf,
  0x45, 0x16, 0x69, 0x3e, 0xf4, 0x86, 0xa4, 0xbe, 0xfd, 0x24, 0xe3, 0x3d,
  0x26, 0xb8, 0xdd, 0x3e, 0xd5, 0x50, 0x98, 0x3e, 0xd4, 0x1a, 0xba, 0xbf,
  0x49, 0x43, 0x84, 0x3e, 0x13, 0x0e, 0xc3, 0xbe, 0xf6, 0xea, 0x3b, 0xbb,
  0xcd, 0x97, 0xf0, 0xbd, 0x50, 0xdf, 0x27, 0x3f, 0xc3, 0xfc, 0xa4, 0xbe,
  0xcf, 0x3e, 0xb7, 0xbe, 0x80, 0x67, 0x8e, 0xbe, 0xd1, 0x7b, 0x8e, 0xbc,
  0x74, 0xf8, 0xae, 0xbd, 0xaa, 0xfc, 0xca, 0x3e, 0x8a, 0xf2, 0xd1, 0xbe,
  0xd9, 0x26, 0x25, 0xbe, 0x77, 0x97, 0x2d, 0xbc, 0x50, 0x4c, 0xe2, 0xbc,
  0x80, 0xac, 0x8f, 0x3e, 0x0c, 0xfe, 0x77, 0x3e, 0xd1, 0x7c, 0x24, 0x3d,
  0x6c, 0x00, 0x25, 0xbe, 0xa8, 0x04, 0xf4, 0xbe, 0x7f, 0x5d, 0x00, 0xbd,
  0xe6, 0xbf, 0xb3, 0xbd, 0x82, 0x75, 0xdc, 0xbe, 0x4b, 0xdf, 0x61, 0xbe,
  0xac, 0xad, 0x06, 0xbf, 0x34, 0x98, 0x8c, 0x3e, 0x7b, 0xab, 0xb9, 0x3e,
  0x0e, 0x70, 0x4e, 0xbe, 0xec, 0x2c, 0x9e, 0xbe, 0x5e, 0x39, 0x27, 0xbf,
  0x09, 0xe7, 0x86, 0xbe, 0x69, 0xf2, 0x2d, 0xbe, 0x4f, 0x7c, 0x67, 0x3e,
  0xe9, 0x66, 0xf8, 0xbe, 0xde, 0x83, 0x99, 0x3e, 0xc5, 0x46, 0xcd, 0xbe,
  0xd2, 0xfd, 0xf1, 0x3d, 0x90, 0x31, 0x80, 0xbe, 0x7b, 0xb0, 0xae, 0xbf,
  0x63, 0x5c, 0x5e, 0x3e, 0xd6, 0xfc, 0x00, 0xbe, 0x68, 0x32, 0xf6, 0x3e,
  0x1d, 0xc0, 0x92, 0x3d, 0x0a, 0xd6, 0x36, 0x3e, 0x13, 0xa7, 0x97, 0xbe,
  0x64, 0x6e, 0x90, 0xbe, 0xcd, 0xad, 0x99, 0xbe, 0x7d, 0xb3, 0xa7, 0x3d,
  0xeb, 0x6e, 0xcb, 0x3e, 0x55, 0x99, 0x27, 0x3e, 0x57, 0xe3, 0x96, 0x3e,
  0xfd, 0x77, 0xf2, 0xbe, 0xb2, 0x3f, 0x0f, 0xbe, 0x12, 0x15, 0xc0, 0x3d,
  0x6c, 0xf2, 0x37, 0xbe, 0x36, 0x44, 0x56, 0x3d, 0x09, 0x34, 0xe3, 0x3d,
  0x55, 0xd3, 0x02, 0x3e, 0xd4, 0x96, 0x05, 0xbf, 0x1d, 0x09, 0x58, 0x3f,
  0x87, 0x02, 0xa4, 0x3e, 0x3a, 0x34, 0x3c, 0x3e, 0xa6, 0x6a, 0xc1, 0xbe,
  0xaf, 0x46, 0x8f, 0x3f, 0xc1, 0xbd, 0x1f, 0x3e, 0xfe, 0x1b, 0x05, 0x3e,
  0x9b, 0x75, 0x0f, 0xbf, 0xfc, 0xbb, 0x54, 0x3e, 0xde, 0xf7, 0x2d, 0x3e,
  0x04, 0x89, 0xeb, 0xbe, 0x8b, 0xf9, 0x4b, 0x3e, 0x42, 0xc2, 0xd8, 0x3e,
  0xa8, 0x8f, 0x05, 0x3f, 0x58, 0xd1, 0x71, 0xbf, 0x2a, 0x21, 0xc7, 0xbd,
  0xbf, 0x6d, 0x18, 0x3f, 0x68, 0xa0, 0x81, 0x3e, 0x63, 0xee, 0x86, 0xbe,
  0xfa, 0x60, 0x33, 0x3e, 0xc4, 0x33, 0x90, 0x3f, 0x44, 0x91, 0xe7, 0x3e,
  0x65, 0x0e, 0xa4, 0xbe, 0x6d, 0x64, 0x98, 0xbe, 0x97, 0x23, 0xea, 0x3d,
  0xd6, 0xc4, 0x7c, 0x3e, 0x00, 0x00, 0x00, 0x00, 0x26, 0xed, 0xff, 0xff,
  0x04, 0x00, 0x00, 0x00, 0x00, 0x04, 0x00, 0x00, 0x90, 0x73, 0xfd, 0x3d,
  0x06, 0x33, 0x0c, 0xbf, 0x58, 0x87, 0x52, 0x3d, 0xef, 0xff, 0x99, 0x3e,
  0x6f, 0x09, 0xe0, 0x3e, 0x86, 0x64, 0xce, 0xbd, 0xa7, 0x29, 0xa6, 0xbe,
  0xa7, 0xb4, 0x6e, 0x3e, 0x00, 0xc2, 0x1f, 0xbf, 0xf2, 0x4e, 0x46, 0xbe,
  0x5d, 0x80, 0x31, 0x3e, 0xaf, 0xa3, 0xbe, 0x3e, 0x7f, 0xca, 0x4e, 0x3f,
  0x3b, 0x67, 0x70, 0x3e, 0x00, 0xa4, 0x09, 0xbf, 0xb8, 0xcd, 0x63, 0xbe,
  0xc7, 0x23, 0xc6, 0x3c, 0xc6, 0x26, 0xb6, 0xbe, 0x6b, 0x19, 0xd5, 0x3e,
  0x5e, 0x60, 0x07, 0x3e, 0x30, 0xdf, 0x0f, 0x3e, 0xfb, 0x67, 0x88, 0xbe,
  0x8e, 0x32, 0x1c, 0x3f, 0xc5, 0xd8, 0x23, 0x3f, 0xa5, 0xce, 0xa0, 0x3d,
  0x38, 0x87, 0xdb, 0x3d, 0x4d, 0x52, 0x3f, 0xbf, 0xf4, 0xec, 0xa4, 0xbd,
  0x46, 0x03, 0x86, 0xbf, 0xcf, 0xdc, 0xfa, 0x3e, 0x6f, 0x9f, 0xd4, 0xbe,
  0x62, 0x98, 0x00, 0x3e, 0x3b, 0x72, 0xb2, 0xbe, 0x37, 0x28, 0x28, 0x3e,
  0x28, 0xea, 0xad, 0xbd, 0x6e, 0x2b, 0x31, 0x3e, 0x99, 0x7f, 0x7a, 0x3d,
  0x5f, 0x96, 0xa7, 0x3d, 0x62, 0xd5, 0x5c, 0x3e, 0x08, 0xf4, 0x86, 0xbd,
  0xcd, 0x17, 0x89, 0x3e, 0xdd, 0xab, 0xb9, 0x3a, 0xc1, 0x55, 0x24, 0xbe,
  0x63, 0x32, 0xc1, 0xbe, 0xcd, 0x1b, 0x93, 0xbe, 0xaf, 0xf2, 0xa9, 0x3c,
  0x1b, 0xac, 0xa2, 0x3d, 0x49, 0xdc, 0xbd, 0xbe, 0x18, 0x9d, 0xe3, 0xbe,
  0x41, 0x7d, 0x7e, 0xbd, 0x70, 0x7c, 0x5e, 0xbd, 0x5a, 0xb0, 0xfa, 0x3d,
  0xc0, 0x3e, 0x4e, 0x3e, 0xbe, 0x09, 0x0a, 0xbf, 0x23, 0x8d, 0xe4, 0x3d,
  0xcc, 0x11, 0x6d, 0xbe, 0x2f, 0x58, 0x2a, 0xbe, 0xc2, 0x5f, 0x03, 0x3e,
  0xca, 0x5b, 0x19, 0xbf, 0x1f, 0xb5, 0x45, 0xbe, 0xcf, 0xab, 0x4b, 0xbf,
  0x28, 0x40, 0x73, 0x3e, 0x22, 0xee, 0x59, 0xbe, 0xb7, 0x32, 0xd5, 0x3e,
  0x38, 0x3a, 0xb9, 0xbf, 0x3e, 0x3b, 0x16, 0xbe, 0xf8, 0x0f, 0x0d, 0x3d,
  0xcc, 0x44, 0xe5, 0x3e, 0x46, 0xcf, 0xaa, 0x3d, 0xda, 0xdd, 0x46, 0xbe,
  0x25, 0x52, 0x8d, 0xbf, 0xfc, 0x56, 0x80, 0xbf, 0x21, 0xe2, 0x77, 0xbf,
  0x66, 0xbc, 0x3c, 0x3b, 0x1d, 0xcb, 0x9c, 0x3e, 0xd4, 0x22, 0x95, 0x3d,
  0x37, 0xc4, 0x33, 0x3e, 0x2f, 0x91, 0x78, 0x3d, 0x1e, 0x57, 0x46, 0xbf,
  0x8e, 0x4e, 0x30, 0x3e, 0x1b, 0x35, 0xf7, 0xbe, 0xef, 0x4f, 0xda, 0x3e,
  0x3a, 0xcc, 0x8d, 0xbe, 0x98, 0x20, 0xd1, 0xbe, 0x57, 0x95, 0xfd, 0xbe,
  0xc6, 0x27, 0x47, 0xbd, 0xd6, 0xdb, 0xab, 0xbe, 0x6e, 0xa5, 0x26, 0x3e,
  0x25, 0xc4, 0x3d, 0xbe, 0x07, 0x37, 0xf1, 0x3d, 0xe5, 0x9c, 0xb2, 0x3d,
  0x78, 0x74, 0x8c, 0xbe, 0xe4, 0x21, 0xa8, 0x3e, 0x5b, 0x09, 0x6f, 0xbe,
  0x0b, 0x96, 0x00, 0x3f, 0x23, 0x85, 0x41, 0x3e, 0x20, 0xfd, 0x1e, 0x3c,
  0xed, 0xd4, 0x0e, 0xbf, 0x20, 0x3a, 0x7e, 0xbd, 0xee, 0x92, 0x91, 0xbd,
  0xde, 0xc1, 0x97, 0x3e, 0xa1, 0xe8, 0xa4, 0x3d, 0x9a, 0xb0, 0x4c, 0x3d,
  0x52, 0x78, 0x07, 0xbf, 0x3a, 0x61, 0xc6, 0xbe, 0x8a, 0xb1, 0x03, 0x3f,
  0xa7, 0x1c, 0x2b, 0xbe, 0x5c, 0x3c, 0xe8, 0x3d, 0x9e, 0x44, 0x16, 0xbf,
  0x99, 0xb1, 0x98, 0x3e, 0x14, 0xab, 0x45, 0xbf, 0x6f, 0x34, 0x4d, 0x3f,
  0xfc, 0x78, 0x54, 0xbe, 0xe9, 0x51, 0x97, 0xbf, 0xd5, 0x69, 0xa1, 0x3e,
  0x74, 0x81, 0x78, 0x3e, 0x35, 0xe1, 0x2c, 0x3e, 0xe3, 0x88, 0xae, 0xbf,
  0xc5, 0x91, 0x47, 0xbe, 0x69, 0xaa, 0xf8, 0x3d, 0x2e, 0x9c, 0x41, 0xbf,
  0x1a, 0x31, 0x07, 0x3f, 0xd4, 0x1e, 0x9f, 0x3a, 0xd8, 0x22, 0x27, 0xbd,
  0x03, 0x24, 0xbb, 0xbf, 0x97, 0x13, 0xaa, 0x3e, 0x81, 0x20, 0x1a, 0xbf,
  0xe8, 0x03, 0x59, 0x3f, 0xf5, 0xdf, 0xb7, 0x3e, 0x28, 0xe3, 0x01, 0xbf,
  0xaa, 0x03, 0x05, 0x3e, 0xac, 0xd0, 0x6a, 0x3e, 0xbf, 0xa5, 0xd2, 0x3e,
  0xde, 0x1a, 0xe5, 0xbe, 0xe7, 0x52, 0xaf, 0x3e, 0x71, 0x7c, 0xf4, 0xbc,
  0x46, 0x53, 0xb1, 0x3e, 0x0b, 0xee, 0xb1, 0xbe, 0x4b, 0x67, 0x8a, 0x3d,
  0x44, 0x62, 0xe8, 0x3d, 0x02, 0x7e, 0x56, 0x3e, 0x9b, 0xe0, 0xd6, 0x3e,
  0x85, 0x9e, 0x55, 0x3e, 0x96, 0x8d, 0xe0, 0x3d, 0x29, 0x6c, 0xb8, 0x3e,
  0x10, 0x24, 0x35, 0xbe, 0xa4, 0xc9, 0xa3, 0x3d, 0x8e, 0xae, 0x09, 0xbe,
  0xc7, 0xb5, 0xc6, 0xbe, 0x9a, 0xeb, 0x5b, 0x3e, 0x46, 0x07, 0xaf, 0xbe,
  0xe4, 0xe0, 0x86, 0xbe, 0x42, 0xb1, 0x47, 0x3e, 0xf0, 0x24, 0x11, 0x3d,
  0x6e, 0x82, 0x11, 0x3e, 0x0e, 0x7d, 0xb7, 0xbe, 0x83, 0xad, 0xa5, 0xbe,
  0x80, 0xf9, 0x03, 0x3b, 0x81, 0x1d, 0x85, 0x3e, 0x7a, 0x5e, 0x99, 0xbe,
  0x99, 0x34, 0x03, 0x3f, 0x5b, 0x4b, 0x4f, 0x3e, 0x62, 0x54, 0x54, 0x3e,
  0xf9, 0xdf, 0xba, 0xbe, 0x31, 0x34, 0xa0, 0x3e, 0x1d, 0x20, 0x63, 0xbe,
  0xc6, 0x2a, 0xc4, 0x3e, 0x35, 0x31, 0xc9, 0x3d, 0xd5, 0xbe, 0x19, 0x3e,
  0x5f, 0x3b, 0xcb, 0x3d, 0xe5, 0xf7, 0xc5, 0x3d, 0x84, 0x2a, 0xdd, 0xbd,
  0x46, 0xb3, 0x0f, 0xbe, 0x16, 0xa9, 0xa4, 0xbe, 0x8f, 0x9c, 0x99, 0x3e,
  0x64, 0x04, 0xb7, 0xbf, 0xa9, 0xd5, 0xdf, 0xbe, 0x37, 0xc6, 0x80, 0x3e,
  0x95, 0xad, 0xa0, 0xbe, 0x92, 0x2f, 0x46, 0xbe, 0x9b, 0xa9, 0xa2, 0x3e,
  0xab, 0xf5, 0x9a, 0x3d, 0xe2, 0x1e, 0xe8, 0x3d, 0xf5, 0xa8, 0x29, 0xbf,
  0x90, 0x25, 0x96, 0xbf, 0x8f, 0x1a, 0x03, 0x3f, 0x78, 0x99, 0x11, 0x3f,
  0xaa, 0xce, 0x70, 0x3e, 0x8f, 0x10, 0x9a, 0x3e, 0x30, 0x75, 0x73, 0x3e,
  0x9f, 0xaa, 0x7e, 0xbf, 0x72, 0x2a, 0x82, 0x3e, 0xcd, 0x6d, 0xc1, 0xbf,
  0x1c, 0xa2, 0x38, 0xbf, 0xbe, 0x5b, 0x47, 0xbe, 0x94, 0x94, 0x30, 0xbe,
  0x12, 0xa6, 0x24, 0xbd, 0x28, 0xc5, 0x1f, 0xbf, 0xd9, 0xd1, 0x3b, 0xbd,
  0xb8, 0x9d, 0x5a, 0xbf, 0x9c, 0x36, 0x05, 0xbd, 0x65, 0xab, 0x8c, 0xbf,
  0xc2, 0x3b, 0x42, 0x3f, 0xa5, 0x22, 0xcd, 0x3e, 0xd7, 0xbb, 0x57, 0x3e,
  0x8e, 0xf3, 0x86, 0x3e, 0x7e, 0x1c, 0x95, 0x3c, 0x9d, 0x1b, 0xb2, 0xbe,
  0xa4, 0x92, 0x4a, 0xbf, 0x20, 0x67, 0x9a, 0xbf, 0xdc, 0x30, 0x25, 0xbe,
  0x43, 0xf3, 0x82, 0xbd, 0xe7, 0xbb, 0xba, 0x3d, 0xa9, 0xe2, 0x5e, 0xbf,
  0x85, 0xf2, 0x04, 0xbf, 0x34, 0x9b, 0x99, 0xbe, 0x68, 0xf5, 0x7c, 0xbf,
  0x01, 0x4a, 0xed, 0xbe, 0xac, 0x8c, 0x88, 0x3f, 0xa6, 0x8b, 0xb6, 0xbe,
  0xda, 0xd3, 0x2b, 0xbf, 0xec, 0xf6, 0x67, 0x3e, 0xfb, 0x8f, 0x0c, 0xbe,
  0xc2, 0x53, 0xba, 0x3e, 0xd8, 0xb6, 0xc9, 0x3d, 0x00, 0x2f, 0xa7, 0x3e,
  0xaf, 0x63, 0x73, 0xbe, 0xb6, 0xcc, 0x8d, 0xbe, 0x79, 0x63, 0xa4, 0xbe,
  0x23, 0x0a, 0x06, 0x3e, 0x75, 0x2b, 0xb8, 0xbe, 0x09, 0xa4, 0x05, 0xbf,
  0x19, 0x86, 0xdc, 0x3e, 0x6e, 0x67, 0xa9, 0xbd, 0xde, 0x3c, 0x33, 0xbe,
  0xec, 0xff, 0x88, 0xbd, 0xf8, 0x58, 0x51, 0x3d, 0xf7, 0x66, 0xff, 0xbd,
  0x01, 0x01, 0xbb, 0xbe, 0xaf, 0x80, 0x58, 0x3d, 0x84, 0x80, 0xb2, 0x3a,
  0x30, 0xd3, 0x22, 0xbe, 0x39, 0x52, 0xae, 0x3e, 0x22, 0x15, 0xf1, 0x3d,
  0x50, 0x3d, 0x62, 0xbe, 0xbd, 0x30, 0x39, 0x3d, 0x4c, 0xf1, 0x88, 0x3e,
  0xec, 0x21, 0x6d, 0x3e, 0x69, 0x37, 0x98, 0xbd, 0xdb, 0x46, 0xe1, 0xbe,
  0xb1, 0x5d, 0x31, 0xbe, 0xce, 0x65, 0x27, 0xbe, 0x94, 0x6a, 0x78, 0x3d,
  0x90, 0xb7, 0x54, 0x3e, 0x53, 0x4a, 0xb5, 0x3e, 0x06, 0x2a, 0x0f, 0x3e,
  0x00, 0x00, 0x00, 0x00, 0x36, 0xf1, 0xff, 0xff, 0x04, 0x00, 0x00, 0x00,
  0x00, 0x04, 0x00, 0x00, 0x0f, 0x85, 0x3f, 0x3e, 0xa4, 0x42, 0xbf, 0xbe,
  0x5b, 0xc1, 0x86, 0xbe, 0x49, 0x1e, 0x3d, 0xbf, 0x2c, 0x1e, 0x25, 0x3e,
  0x4f, 0x5e, 0xa2, 0xbd, 0x88, 0xae, 0x8e, 0x3e, 0xce, 0xb3, 0x32, 0x3c,
  0x64, 0x7c, 0x8a, 0xbe, 0xb0, 0xc0, 0x06, 0x3f, 0x59, 0xb8, 0x59, 0xbc,
  0xd8, 0xa0, 0xe0, 0xbd, 0x37, 0xb7, 0x11, 0x3f, 0xa9, 0x89, 0xcd, 0x3e,
  0x46, 0x92, 0x00, 0x3f, 0x98, 0x37, 0x08, 0xbe, 0x00, 0xf6, 0x78, 0xbf,
  0xff, 0xd8, 0x21, 0xbd, 0x24, 0x36, 0xa2, 0x3c, 0x3c, 0xf2, 0x24, 0xbf,
  0xdd, 0xef, 0x11, 0x3f, 0xdc, 0x72, 0x36, 0xbf, 0xcb, 0x43, 0x81, 0xbf,
  0xca, 0xc2, 0xd1, 0xbe, 0x2b, 0x02, 0xf5, 0x3e, 0x8c, 0x74, 0x4b, 0xbf,
  0x6b, 0xb4, 0xad, 0x3e, 0xc1, 0x02, 0xc4, 0x3e, 0xd0, 0x51, 0x78, 0x3e,
  0x4b, 0x27, 0x52, 0xbe, 0x01, 0xa2, 0x21, 0xbf, 0xa0, 0x91, 0x34, 0xbd,
  0x9a, 0xcb, 0xb9, 0xbe, 0x13, 0x71, 0x74, 0xbe, 0x00, 0x01, 0x51, 0xbb,
  0x5a, 0x7d, 0x98, 0xbe, 0xd8, 0xd8, 0xa5, 0xbd, 0x9a, 0xb8, 0x67, 0xbe,
  0xf3, 0x81, 0x72, 0xbe, 0x68, 0x05, 0x67, 0xbd, 0x28, 0x4e, 0xa7, 0xbd,
  0xa1, 0xcd, 0xcf, 0x3e, 0x16, 0x40, 0x0c, 0xbe, 0xee, 0xeb, 0x85, 0xbe,
  0xda, 0x85, 0x78, 0xbe, 0x08, 0x2f, 0xc1, 0xbd, 0x60, 0xe2, 0x31, 0xbe,
  0x2b, 0x84, 0xb3, 0x3e, 0x3a, 0xb7, 0x28, 0xbe, 0xcd, 0xc9, 0x6c, 0xbe,
  0xf5, 0x6e, 0x8c, 0x3e, 0xc7, 0x5a, 0x07, 0xbe, 0x06, 0x1b, 0x19, 0xbe,
  0x8d, 0xb9, 0xac, 0xbe, 0xc3, 0x1f, 0x91, 0x3d, 0x34, 0x05, 0x97, 0x3d,
  0xaa, 0x52, 0x49, 0x3e, 0xa8, 0x18, 0xe0, 0xbd, 0x14, 0x09, 0x8e, 0xbd,
  0x6e, 0xad, 0x6d, 0x3e, 0x20, 0x24, 0xd8, 0x3c, 0x78, 0xfa, 0xda, 0xbd,
  0x49, 0xc1, 0xc1, 0xbe, 0xa6, 0xfd, 0x45, 0x3e, 0x9e, 0x5c, 0x8f, 0xbe,
  0x3e, 0x48, 0xea, 0xbe, 0xea, 0xf9, 0xdb, 0xbe, 0x8d, 0x7f, 0xb0, 0x3f,
  0xc0, 0x82, 0xeb, 0x3e, 0x2a, 0xa7, 0x67, 0x3e, 0xa9, 0x2e, 0x2c, 0x3e,
  0xb6, 0x08, 0x85, 0xbe, 0x3f, 0x79, 0x73, 0xbe, 0x93, 0xe1, 0x91, 0xbe,
  0x96, 0x6a, 0xc0, 0x3e, 0x0f, 0xae, 0xa1, 0xbe, 0x14, 0x4b, 0x10, 0xbf,
  0x1d, 0xd0, 0x82, 0x3e, 0x26, 0x6c, 0x32, 0xbe, 0xa2, 0x58, 0x4a, 0x3e,
  0x28, 0x85, 0xa3, 0xbf, 0xaf, 0x78, 0x88, 0x3e, 0x40, 0x31, 0x2a, 0xbc,
  0xb8, 0x4c, 0x7d, 0xbe, 0x29, 0x31, 0x25, 0x3f, 0x02, 0xc0, 0x10, 0xbf,
  0xca, 0xda, 0x62, 0xbf, 0x0f, 0xdb, 0xa3, 0xbe, 0xf9, 0x2d, 0xfa, 0xbe,
  0x88, 0xe9, 0x4f, 0xbf, 0x01, 0xbc, 0x97, 0x3e, 0x70, 0xb8, 0x8f, 0xbd,
  0x51, 0xa8, 0x0b, 0xbe, 0x25, 0xc9, 0xc5, 0xbe, 0x21, 0xc7, 0x18, 0xbf,
  0x9e, 0x05, 0x04, 0x3e, 0x47, 0xc5, 0x9a, 0x3e, 0xc0, 0x2a, 0x5b, 0xbc,
  0xfd, 0xd5, 0xb0, 0xbd, 0x0f, 0xc3, 0xd8, 0xbb, 0xf7, 0x5c, 0x8a, 0xbd,
  0x51, 0x19, 0xdd, 0x3e, 0x4a, 0x8c, 0x8a, 0x3e, 0x25, 0x93, 0x2f, 0x3e,
  0x39, 0xd2, 0xae, 0x3e, 0xcb, 0x99, 0xc5, 0x3b, 0x57, 0xe7, 0x85, 0xbe,
  0x70, 0x73, 0x52, 0xbd, 0x7b, 0x23, 0x6e, 0x3e, 0xa8, 0x6e, 0x01, 0x3f,
  0x2c, 0x0c, 0x2f, 0xbe, 0x1a, 0x8d, 0x72, 0x3e, 0xab, 0x11, 0xcb, 0xbd,
  0xb7, 0x0e, 0xcb, 0x3e, 0xa5, 0xa8, 0xaa, 0xbe, 0xdb, 0x56, 0x01, 0xbf,
  0xbc, 0x83, 0xbf, 0xbc, 0xfa, 0x3f, 0x2b, 0x3e, 0x2b, 0x15, 0x91, 0x3d,
  0x1b, 0xbf, 0xfd, 0x3e, 0x17, 0x8d, 0x87, 0xbe, 0x77, 0x7e, 0xd2, 0x3e,
  0x62, 0x7a, 0xcc, 0x3e, 0xde, 0x64, 0x15, 0x3e, 0x51, 0xdb, 0x26, 0x3f,
  0xb0, 0x66, 0xfd, 0x3e, 0xae, 0x25, 0xc5, 0x3e, 0x51, 0x62, 0xc6, 0x3e,
  0xfe, 0x73, 0xd2, 0x3c, 0x50, 0xf2, 0xc6, 0x3d, 0xdc, 0x3e, 0xd9, 0xbe,
  0xcd, 0xe0, 0xb1, 0xbf, 0xb0, 0xaa, 0xe8, 0x3e, 0xf4, 0x5d, 0xa1, 0xbf,
  0x61, 0x52, 0xf0, 0xbd, 0xf1, 0xc3, 0x85, 0x3e, 0xe7, 0x14, 0x9f, 0x3d,
  0x2d, 0xca, 0x51, 0x3e, 0xcb, 0x67, 0x9f, 0x3e, 0xc0, 0x83, 0xac, 0x3b,
  0x00, 0x80, 0x32, 0xbe, 0xbd, 0xd3, 0xa7, 0xbf, 0xc6, 0x14, 0xd4, 0x3e,
  0x00, 0x30, 0xf1, 0xb9, 0xeb, 0xd9, 0x9d, 0xbc, 0x98, 0x32, 0x89, 0x3d,
  0xf8, 0xce, 0xb8, 0xbd, 0x0f, 0x8b, 0xa3, 0xbf, 0x46, 0x67, 0x9d, 0x3e,
  0x1f, 0x90, 0x2b, 0xbf, 0x55, 0xa4, 0x55, 0xbf, 0xc5, 0xb6, 0x94, 0x3d,
  0x89, 0xa2, 0xf7, 0xba, 0x2b, 0xdb, 0x05, 0xbe, 0x23, 0x77, 0xe7, 0xbe,
  0x5f, 0x75, 0x91, 0x3e, 0x08, 0xe8, 0x25, 0x3e, 0x84, 0xe3, 0x53, 0xbd,
  0x76, 0xf2, 0xc5, 0x3d, 0xc6, 0x74, 0x98, 0xbe, 0xc4, 0x83, 0x9b, 0xbe,
  0xdc, 0x4c, 0x93, 0xbd, 0x8d, 0x50, 0x93, 0x3c, 0x81, 0x6d, 0x1d, 0x3f,
  0x40, 0xb4, 0x3f, 0x3f, 0xce, 0x0e, 0xde, 0xbe, 0x8b, 0xb6, 0xd4, 0xbd,
  0x2f, 0xd1, 0x12, 0xbf, 0xba, 0x34, 0xd3, 0xbe, 0x29, 0x04, 0xe4, 0xbd,
  0x33, 0xc0, 0x9a, 0xbe, 0x74, 0x3f, 0xc8, 0xbd, 0x75, 0x08, 0x76, 0xbe,
  0x68, 0x7a, 0xcc, 0x3d, 0xc9, 0xd1, 0x9a, 0x3c, 0x1a, 0x8e, 0x0d, 0xbe,
  0x30, 0x96, 0x91, 0xbe, 0x00, 0x8d, 0x19, 0x3b, 0x8e, 0xe0, 0x90, 0xbe,
  0xd4, 0x49, 0xea, 0xbd, 0x56, 0x06, 0x2c, 0xbe, 0xba, 0xb0, 0xda, 0xbe,
  0x5c, 0xa7, 0x9b, 0xbe, 0x1a, 0xc2, 0x0e, 0x3e, 0xfd, 0x39, 0x9c, 0x3e,
  0x20, 0xed, 0xd6, 0xbe, 0xc8, 0x66, 0x25, 0x3d, 0x50, 0xdc, 0xf6, 0xbd,
  0xfc, 0x9c, 0xbf, 0x3d, 0xfa, 0xba, 0x23, 0x3e, 0x2c, 0x2e, 0xbc, 0x3d,
  0xab, 0x70, 0xcb, 0x3e, 0x5a, 0x29, 0x5f, 0xbf, 0x1e, 0x35, 0xc4, 0xbd,
  0x20, 0x15, 0x81, 0x3c, 0x7a, 0x90, 0x97, 0xbe, 0x30, 0xa4, 0xff, 0x3e,
  0x74, 0x3f, 0x57, 0xbf, 0x38, 0xb2, 0xf1, 0x3e, 0xa5, 0x7e, 0xac, 0x3c,
  0x25, 0xd7, 0x91, 0x3e, 0x08, 0xcb, 0x65, 0xbe, 0x07, 0xa3, 0x26, 0xbe,
  0x3e, 0xde, 0x3d, 0xbe, 0x7a, 0xea, 0xc1, 0x3c, 0x15, 0x09, 0x5c, 0xbf,
  0xcf, 0xe3, 0xd7, 0xbe, 0xba, 0x98, 0xbf, 0xbe, 0x74, 0x54, 0x3b, 0x3d,
  0xa9, 0x10, 0xcf, 0xbe, 0x71, 0xd3, 0x70, 0x3e, 0xd2, 0x69, 0x9c, 0x3f,
  0x8d, 0xfd, 0xb5, 0x3f, 0x31, 0x52, 0x97, 0x3e, 0x84, 0x92, 0x95, 0xbe,
  0xea, 0xfa, 0xcb, 0xbe, 0xe5, 0x01, 0xb1, 0xbe, 0x52, 0xd1, 0x4d, 0xbe,
  0x60, 0xf9, 0x08, 0xc0, 0x28, 0xb6, 0x4e, 0xbd, 0x4f, 0x0d, 0x04, 0xbf,
  0xe0, 0xc3, 0x9b, 0x3e, 0x3b, 0x84, 0x17, 0x3e, 0x8d, 0xaf, 0x80, 0x3e,
  0xd2, 0x2b, 0x2e, 0xbe, 0x34, 0xdb, 0x96, 0x3d, 0x16, 0x99, 0xbe, 0xbe,
  0xb1, 0xda, 0x8e, 0xbf, 0xac, 0xb0, 0x37, 0x3e, 0x10, 0x6b, 0xc7, 0xbf,
  0xa4, 0x59, 0x1d, 0xbd, 0xb7, 0x89, 0xd0, 0xbd, 0x4b, 0x75, 0xc0, 0x3c,
  0x82, 0xc6, 0x85, 0xbe, 0x6b, 0x7d, 0x6c, 0xbe, 0x32, 0xe3, 0x2a, 0x3e,
  0xa8, 0x99, 0xfb, 0x3d, 0x81, 0x54, 0x93, 0xbf, 0x20, 0xfa, 0x82, 0x3e,
  0x20, 0xbd, 0x65, 0xbc, 0x9b, 0xbd, 0xbb, 0x3d, 0xbe, 0x00, 0xd0, 0xbe,
  0x68, 0x82, 0x0a, 0x3d, 0xff, 0x14, 0xaa, 0x3f, 0x66, 0x44, 0xeb, 0x3e,
  0xdc, 0xae, 0x5e, 0xbd, 0xb8, 0x3d, 0xbc, 0xbd, 0x53, 0xa7, 0x04, 0xbf,
  0x1a, 0xf2, 0x95, 0xbe, 0xc2, 0x06, 0xf6, 0xbd, 0x32, 0xeb, 0x06, 0xbe,
  0xf0, 0x49, 0x88, 0x3d, 0xce, 0xdf, 0xbc, 0xbe, 0x0e, 0x5b, 0x06, 0x3e,
  0x72, 0x9f, 0xc5, 0x3e, 0xbc, 0xd2, 0xc8, 0xbd, 0x00, 0x00, 0x00, 0x00,
  0x46, 0xf5, 0xff, 0xff, 0x04, 0x00, 0x00, 0x00, 0x00, 0x04, 0x00, 0x00,
  0x14, 0x93, 0xe5, 0x3d, 0x2e, 0x4c, 0x61, 0x3b, 0xc1, 0xa2, 0x0a, 0x3e,
  0x38, 0xc4, 0xc8, 0xbd, 0x74, 0x63, 0xee, 0x3d, 0x35, 0x3a, 0x65, 0x3e,
  0x3c, 0x43, 0xaf, 0xbe, 0x92, 0x36, 0x1e, 0xbe, 0xc4, 0xa5, 0xee, 0x3d,
  0x4a, 0x00, 0x20, 0x3e, 0x9d, 0x34, 0x8b, 0xbe, 0x67, 0x35, 0xa0, 0x3e,
  0x68, 0xce, 0xb4, 0x3e, 0x0c, 0xdd, 0xc4, 0xbe, 0x7d, 0xa1, 0xd2, 0x3d,
  0x67, 0x7e, 0x51, 0x3e, 0x37, 0xff, 0x8d, 0x3e, 0x40, 0x4f, 0x39, 0x3d,
  0x9d, 0x41, 0xc5, 0x3d, 0x40, 0xaf, 0xbe, 0xbb, 0xa0, 0x25, 0xc2, 0xbc,
  0xce, 0x40, 0x11, 0xbe, 0xa2, 0x2b, 0x18, 0x3e, 0xb7, 0xbc, 0x8f, 0xbe,
  0x47, 0xf3, 0xc0, 0x3e, 0x8c, 0x8d, 0xb1, 0x3d, 0x08, 0xdb, 0xb8, 0xbe,
  0xa6, 0x76, 0x5a, 0x3e, 0x0e, 0x61, 0x11, 0xbe, 0x66, 0xb5, 0x30, 0x3e,
  0x39, 0xb5, 0x50, 0xbe, 0x48, 0xb5, 0x42, 0x3d, 0xa8, 0x94, 0x0c, 0xbe,
  0x4b, 0x25, 0x90, 0xbd, 0x1b, 0xa2, 0x52, 0xbe, 0xd8, 0x1f, 0x9a, 0xbe,
  0xe8, 0xc0, 0x11, 0xbd, 0x6f, 0x9b, 0x91, 0x3d, 0xa6, 0x17, 0x5f, 0x3e,
  0x86, 0x4d, 0xc3, 0xbe, 0x83, 0xf2, 0xd1, 0x3e, 0x10, 0xca, 0x7c, 0xbd,
  0xaa, 0x8a, 0xb4, 0xbe, 0xd8, 0x9d, 0x79, 0x3d, 0xad, 0xb9, 0x86, 0x3b,
  0x8e, 0xba, 0x5f, 0x3e, 0xfa, 0x30, 0xc6, 0x3d, 0x1e, 0x1e, 0x96, 0xbe,
  0x69, 0x4b, 0xcf, 0xbe, 0x48, 0x35, 0x98, 0xbe, 0xbd, 0xf2, 0xb0, 0xbe,
  0x1c, 0xa5, 0xc8, 0x3d, 0x40, 0xac, 0x79, 0x3d, 0x23, 0x2f, 0x40, 0xbf,
  0xc0, 0xa7, 0x27, 0x3c, 0x5f, 0x4a, 0x83, 0xbe, 0x3f, 0xb4, 0x09, 0x3e,
  0xe2, 0xd9, 0x51, 0x3e, 0x97, 0x2c, 0x5d, 0xbf, 0x9c, 0x8b, 0xf7, 0x3d,
  0x65, 0x05, 0x98, 0x3e, 0xdf, 0x21, 0xc5, 0xbe, 0x13, 0x1e, 0xbe, 0xbd,
  0xa9, 0x11, 0x6f, 0x3e, 0xc4, 0x3c, 0x9b, 0x3d, 0x99, 0x1f, 0xde, 0xbb,
  0xc6, 0xba, 0x1d, 0x3f, 0x70, 0x65, 0x61, 0xbd, 0x29, 0x06, 0xd0, 0xbe,
  0xd7, 0x22, 0xb5, 0xbd, 0x6c, 0x35, 0x8c, 0xbe, 0xe6, 0x35, 0xb4, 0x3e,
  0xa5, 0x86, 0x3a, 0xbe, 0x98, 0x3e, 0x81, 0xbe, 0xd5, 0x0b, 0xa8, 0xbf,
  0x35, 0x5f, 0x6e, 0xbe, 0xb8, 0x48, 0x12, 0xbe, 0xa9, 0x09, 0xa5, 0x3e,
  0x0e, 0x3c, 0x7e, 0xbe, 0xca, 0xc4, 0x26, 0x3e, 0x2e, 0xdb, 0x24, 0x3e,
  0x67, 0xb1, 0x21, 0x3d, 0x08, 0x6a, 0x03, 0x3e, 0x80, 0x5a, 0x04, 0xbb,
  0x26, 0xa8, 0x2c, 0x3e, 0x6d, 0xcf, 0x3d, 0xbe, 0x7a, 0x6a, 0x8e, 0xbe,
  0xcd, 0xbd, 0xdb, 0x3c, 0xf7, 0x02, 0x77, 0x3e, 0xae, 0xb3, 0x53, 0xbe,
  0x13, 0x2c, 0x59, 0xbd, 0x54, 0x5d, 0x0e, 0xbe, 0x1c, 0x54, 0x36, 0x3e,
  0xc2, 0x45, 0x0d, 0xbe, 0xf2, 0x99, 0xbc, 0x3e, 0xad, 0x30, 0xdb, 0xbe,
  0xe3, 0x50, 0xc1, 0xbe, 0x2f, 0x60, 0x21, 0x3e, 0x1b, 0xad, 0xe7, 0x3e,
  0x2a, 0x81, 0xbb, 0xbe, 0xde, 0x8c, 0xb3, 0xbe, 0x7a, 0x9b, 0xe4, 0x3e,
  0x60, 0xf6, 0x1b, 0x3c, 0x78, 0xc4, 0x40, 0xbe, 0xc8, 0xde, 0xb3, 0x3d,
  0xe1, 0x17, 0x88, 0x3e, 0xf4, 0xe9, 0xdb, 0x3d, 0xf3, 0xb9, 0xc7, 0x3e,
  0xdf, 0xd9, 0x99, 0x3e, 0xb0, 0x7a, 0x8d, 0x3c, 0xb2, 0x77, 0x54, 0x3e,
  0x9f, 0xe9, 0x4c, 0x3f, 0xe8, 0x52, 0xa1, 0xbd, 0xc6, 0xa4, 0x10, 0x3f,
  0xb4, 0x4d, 0x05, 0xbf, 0x08, 0x4f, 0x56, 0xbd, 0xbe, 0x0b, 0x78, 0x3e,
  0x51, 0x47, 0xcc, 0xbe, 0x42, 0x02, 0xa8, 0xbe, 0xca, 0x3d, 0xd2, 0xbd,
  0xd2, 0x22, 0x03, 0x3e, 0xe8, 0x32, 0x79, 0xbd, 0xce, 0xf8, 0x2e, 0xbe,
  0x50, 0xa9, 0x3f, 0x3d, 0x16, 0x84, 0xdf, 0x3e, 0x27, 0xb4, 0x92, 0x3e,
  0x6c, 0xa5, 0xac, 0x3c, 0xbb, 0x04, 0xb7, 0xbe, 0x47, 0x2f, 0x5e, 0xbe,
  0x22, 0xd1, 0x49, 0x3e, 0x3b, 0x42, 0x4b, 0x3e, 0xa2, 0xee, 0x3b, 0xbe,
  0x75, 0x7a, 0xba, 0x3e, 0x2b, 0xd8, 0x96, 0xbe, 0xc9, 0xbc, 0x80, 0xbe,
  0xb3, 0xa2, 0x87, 0xbe, 0xf3, 0x21, 0x15, 0xbe, 0x36, 0x1c, 0xba, 0xbe,
  0x89, 0xef, 0xe4, 0x3d, 0xc0, 0x6d, 0x88, 0xbc, 0x2e, 0x8c, 0x8d, 0xbe,
  0x5f, 0x44, 0x90, 0x3e, 0xb4, 0xdb, 0x72, 0xbe, 0xcc, 0xa5, 0x2d, 0xbe,
  0xea, 0xaf, 0x1c, 0xbe, 0x96, 0x5b, 0x5f, 0x3e, 0xfc, 0x72, 0xae, 0xbe,
  0x05, 0x81, 0xd4, 0x3e, 0x37, 0xae, 0xa5, 0xbe, 0x0e, 0xd4, 0x53, 0xbd,
  0xc7, 0x27, 0xd3, 0x3e, 0x37, 0x22, 0x6c, 0x3d, 0xe5, 0xee, 0x86, 0x3e,
  0x00, 0xed, 0x07, 0x3b, 0x5a, 0x12, 0x50, 0xbe, 0x98, 0x0e, 0x20, 0xbd,
  0x28, 0xcd, 0xec, 0x3e, 0xd0, 0xe7, 0xb1, 0xbc, 0x94, 0xa9, 0xdd, 0x3e,
  0x81, 0x27, 0x8d, 0x3e, 0x2c, 0x92, 0x8f, 0xbd, 0x18, 0x41, 0xd2, 0xbe,
  0xc6, 0x48, 0x1f, 0x3e, 0x1c, 0x5d, 0x9e, 0xbe, 0xc5, 0x03, 0xba, 0x3e,
  0x7d, 0x66, 0x6e, 0xbe, 0xbd, 0x6d, 0xbd, 0x3e, 0x5b, 0xf8, 0x1a, 0xbf,
  0xca, 0xa2, 0xc8, 0xbe, 0x4e, 0x52, 0x0b, 0x3e, 0x53, 0x0b, 0x53, 0x3e,
  0x14, 0x6f, 0xa5, 0x3d, 0x2a, 0xa3, 0x62, 0x3e, 0x44, 0x67, 0x0a, 0xbe,
  0x9f, 0xae, 0x77, 0x3b, 0x6e, 0x4c, 0x63, 0x3f, 0x97, 0x2b, 0xd0, 0xbe,
  0x98, 0xbf, 0x04, 0xbe, 0xa4, 0x00, 0xbb, 0xbd, 0x3e, 0x97, 0x0e, 0x3e,
  0xe8, 0xb2, 0x26, 0x3d, 0x8c, 0xdd, 0x6d, 0xbe, 0x08, 0x71, 0x56, 0x3d,
  0xc0, 0x96, 0x83, 0xbb, 0xc6, 0x26, 0x4f, 0x3e, 0xef, 0xa6, 0xaf, 0x3e,
  0xb4, 0xa5, 0x88, 0xbe, 0x90, 0xd8, 0x2b, 0xbd, 0xf4, 0xac, 0xc1, 0xbe,
  0x80, 0x43, 0xbb, 0xbc, 0x82, 0x6e, 0x25, 0xbe, 0x28, 0x2e, 0x52, 0xbe,
  0x9b, 0x06, 0xc0, 0xbe, 0x2b, 0xa5, 0x65, 0xbd, 0x58, 0x9b, 0xad, 0x3e,
  0x33, 0xcf, 0xc3, 0x3e, 0x96, 0x45, 0x4d, 0x3e, 0xa9, 0x2e, 0xf5, 0x3e,
  0x1a, 0x9e, 0x27, 0x3e, 0x25, 0xa7, 0x84, 0xbe, 0x89, 0x1e, 0xaa, 0xbe,
  0xc4, 0x2e, 0x96, 0xbd, 0xb1, 0x2c, 0xd3, 0xbe, 0x19, 0xca, 0x8f, 0xbe,
  0x4f, 0x9c, 0xd5, 0x3e, 0xf8, 0x58, 0x93, 0xbe, 0xcf, 0xd4, 0x4a, 0x3e,
  0x99, 0x6f, 0x33, 0x3e, 0x99, 0x08, 0xaa, 0x3e, 0xb4, 0xed, 0x4d, 0x3d,
  0xf5, 0xdc, 0xc6, 0xbd, 0x02, 0xda, 0x15, 0x3e, 0x32, 0xfb, 0x5b, 0x3e,
  0x5c, 0x1a, 0x77, 0x3d, 0xdd, 0xd4, 0x81, 0xbe, 0x9e, 0x50, 0xc3, 0x3e,
  0x91, 0x59, 0xe0, 0xbd, 0xe6, 0xe9, 0xcb, 0xbe, 0x14, 0x08, 0x1b, 0xbf,
  0x7c, 0x7f, 0x34, 0xbe, 0xf1, 0xbf, 0xe4, 0x3e, 0x1e, 0xcf, 0xda, 0xbe,
  0x83, 0x9f, 0xd9, 0x3e, 0x2a, 0x3a, 0x50, 0x3e, 0x80, 0xae, 0xf6, 0x3b,
  0x3c, 0xe3, 0xa9, 0x3e, 0xa4, 0xd7, 0xd8, 0xbd, 0xac, 0xf4, 0x8c, 0x3d,
  0x5e, 0x2e, 0x43, 0x3e, 0x74, 0xe8, 0xbe, 0x3e, 0x10, 0x6f, 0xfe, 0xbc,
  0x4d, 0x15, 0x89, 0xbe, 0xbd, 0x9a, 0xa5, 0x3e, 0xa0, 0x2a, 0xa9, 0xbd,
  0x02, 0xd9, 0xae, 0xbd, 0xdc, 0x4a, 0x94, 0xbe, 0x7a, 0x41, 0x40, 0xbe,
  0x6a, 0x42, 0x46, 0x3e, 0x97, 0x71, 0xce, 0x3e, 0x13, 0xe6, 0xa9, 0xbf,
  0x86, 0xac, 0x51, 0x3e, 0xc5, 0x9f, 0xc5, 0xbe, 0xa8, 0x4d, 0x87, 0xbd,
  0x98, 0x51, 0x42, 0x3d, 0x5d, 0xb5, 0xda, 0x3e, 0x4a, 0xd4, 0xac, 0xbe,
  0x81, 0xbd, 0xc6, 0xbe, 0x68, 0x7d, 0x20, 0xbe, 0x3f, 0x28, 0xa6, 0x3e,
  0x43, 0xa4, 0xc3, 0x3e, 0x32, 0x45, 0x93, 0xbe, 0xda, 0xec, 0x79, 0x3e,
  0x84, 0x5a, 0xcb, 0xbd, 0x35, 0x36, 0x64, 0xbe, 0x4e, 0xe0, 0x1f, 0xbe,
  0x3d, 0x2e, 0x87, 0x3e, 0x00, 0x00, 0x00, 0x00, 0x56, 0xf9, 0xff, 0xff,
  0x04, 0x00, 0x00, 0x00, 0x00, 0x04, 0x00, 0x00, 0x60, 0xd5, 0x2e, 0x3d,
  0xe2, 0xa7, 0x77, 0x3e, 0x16, 0x6a, 0x26, 0xbe, 0x0c, 0x94, 0xba, 0x3d,
  0xbc, 0xf3, 0xb8, 0xbe, 0xbc, 0x8e, 0xc4, 0x3d, 0x8d, 0xa5, 0xa9, 0x3e,
  0x1e, 0x8d, 0x28, 0xbe, 0xaa, 0xab, 0x5d, 0x3e, 0x10, 0x99, 0x61, 0x3d,
  0xb1, 0xa9, 0x77, 0xbe, 0x08, 0xb2, 0x1f, 0xbe, 0xba, 0xa9, 0x18, 0xbe,
  0xfe, 0xce, 0x0e, 0x3e, 0xd0, 0xf7, 0x8b, 0x3c, 0x28, 0x4d, 0x96, 0xbe,
  0x79, 0x7d, 0xd6, 0xbe, 0x5c, 0x4a, 0xde, 0xbd, 0x16, 0x37, 0x99, 0xbe,
  0x73, 0x29, 0x23, 0xbd, 0x64, 0x8d, 0x9c, 0xbe, 0x65, 0x4c, 0xbc, 0xbe,
  0xaf, 0x0a, 0x72, 0x3d, 0xfa, 0x74, 0xb8, 0x3e, 0x98, 0xbd, 0xf0, 0xbd,
  0xd4, 0x72, 0x19, 0xbe, 0x13, 0xb3, 0x88, 0x3e, 0x46, 0xaf, 0xd4, 0x3e,
  0x0d, 0x1d, 0xba, 0x3e, 0xbb, 0x41, 0xdd, 0x3e, 0xf1, 0x81, 0x47, 0x3e,
  0x3f, 0x48, 0x95, 0xbe, 0xca, 0x42, 0x7c, 0x3e, 0xba, 0x98, 0xcc, 0xbe,
  0x18, 0xc8, 0x82, 0x3e, 0x35, 0x10, 0xd1, 0xbd, 0x49, 0x37, 0x94, 0x3e,
  0x0f, 0x40, 0x9e, 0xbe, 0x43, 0x0f, 0x59, 0x3c, 0x22, 0x74, 0x33, 0xbe,
  0x26, 0xcc, 0x57, 0x3e, 0x78, 0xd7, 0xc6, 0xbe, 0x20, 0x48, 0xb8, 0xbd,
  0xb3, 0x0c, 0xac, 0xbd, 0xc7, 0x97, 0x88, 0xbe, 0x24, 0xd4, 0x98, 0xbe,
  0x82, 0x1a, 0xe3, 0xbe, 0x1b, 0x43, 0x34, 0xbe, 0x80, 0x8d, 0x97, 0x3c,
  0x6d, 0x25, 0x47, 0xbe, 0x6b, 0x77, 0xc3, 0x3e, 0xfc, 0x15, 0x9a, 0x3d,
  0xe4, 0x10, 0xb6, 0xbe, 0x8e, 0x12, 0x38, 0x3e, 0x9d, 0xbe, 0x95, 0x3e,
  0xda, 0xae, 0xba, 0xbe, 0x00, 0xe8, 0x0d, 0xb9, 0x18, 0x7e, 0x49, 0xbd,
  0xe4, 0x65, 0x47, 0xbe, 0x3c, 0x41, 0xea, 0xbd, 0x9e, 0x8e, 0x92, 0xbe,
  0xe2, 0xb3, 0x13, 0x3e, 0x00, 0xa8, 0xa4, 0xbb, 0xec, 0x57, 0x8e, 0x3d,
  0xb3, 0x11, 0x61, 0xbe, 0xc4, 0x5d, 0xe8, 0x3d, 0xb9, 0x2d, 0x45, 0xbe,
  0x6c, 0x8c, 0x27, 0xbe, 0x2b, 0x55, 0x9e, 0xbe, 0x7a, 0x24, 0x74, 0x3e,
  0x10, 0xc1, 0x2a, 0xbe, 0x24, 0xcf, 0x37, 0xbe, 0xdc, 0xcf, 0x97, 0xbd,
  0x10, 0x1c, 0xaa, 0x3c, 0x62, 0xaf, 0x2e, 0xbe, 0x8d, 0xa9, 0xc8, 0x3e,
  0x6a, 0x67, 0x05, 0xbe, 0xd5, 0xf7, 0xa3, 0xbe, 0x17, 0xcf, 0xdc, 0x3e,
  0xcf, 0x25, 0xa1, 0xbe, 0x28, 0x4f, 0x83, 0x3d, 0x3f, 0xe5, 0x72, 0xbe,
  0xc4, 0xe0, 0x80, 0x3e, 0x6d, 0xe0, 0x73, 0xbe, 0x1b, 0x2c, 0xbf, 0x3e,
  0xb8, 0x1b, 0x02, 0xbe, 0xdc, 0x09, 0x71, 0x3e, 0x19, 0x64, 0x9e, 0xbe,
  0x35, 0x86, 0x96, 0x3e, 0x54, 0x5b, 0x9c, 0xbe, 0x46, 0x0e, 0xb5, 0xbe,
  0x87, 0x78, 0xa9, 0xbe, 0xc8, 0x03, 0xb6, 0xbe, 0xc1, 0x10, 0x58, 0xbf,
  0x45, 0x1e, 0x68, 0xbf, 0x4f, 0x48, 0xc2, 0xbd, 0xb8, 0x63, 0x8a, 0xbe,
  0x40, 0xff, 0x4e, 0x3c, 0x48, 0x86, 0xac, 0xbe, 0x24, 0xa9, 0xa4, 0xbd,
  0x63, 0x17, 0xb6, 0xbe, 0xc4, 0x9b, 0xd5, 0x3d, 0x6c, 0xce, 0xa6, 0x3d,
  0x89, 0x47, 0xcb, 0x3e, 0x57, 0xcb, 0xd4, 0x3e, 0x80, 0x65, 0x0b, 0x3c,
  0xe7, 0xed, 0x94, 0xbe, 0xbf, 0xfa, 0xd2, 0x3e, 0xe2, 0x2f, 0x1c, 0x3e,
  0x66, 0x53, 0x6b, 0x3e, 0xe0, 0x98, 0x17, 0xbd, 0x76, 0xa8, 0x80, 0xbe,
  0x07, 0x8b, 0x82, 0xbe, 0xe7, 0x7a, 0xd3, 0xbe, 0x69, 0x5a, 0x22, 0xbd,
  0xd9, 0x56, 0x81, 0x3e, 0x8f, 0x1f, 0xab, 0x3e, 0x66, 0x1d, 0x0e, 0xbe,
  0x5a, 0x2f, 0x49, 0xbb, 0x7f, 0xfc, 0x88, 0xbe, 0x90, 0xe7, 0x8d, 0xbe,
  0x21, 0x87, 0xcf, 0x3e, 0xa7, 0x4a, 0x0f, 0x3e, 0x8d, 0xe3, 0xbe, 0xbe,
  0x62, 0xf8, 0x9d, 0xbe, 0x87, 0x31, 0xa8, 0xbe, 0x8c, 0x29, 0x58, 0xbc,
  0x90, 0x99, 0x64, 0x3e, 0xb7, 0x21, 0xb1, 0x3e, 0xf0, 0x93, 0x6a, 0x3d,
  0x50, 0x7d, 0x6f, 0xbe, 0x70, 0xc5, 0x7d, 0xbe, 0x9a, 0xa8, 0xed, 0x3d,
  0x4b, 0x61, 0xc5, 0xbe, 0xf0, 0x2a, 0xc1, 0xbe, 0xb2, 0xd8, 0x3d, 0xbe,
  0x42, 0xc9, 0x94, 0xbe, 0x5c, 0x27, 0xc7, 0xbe, 0xd4, 0xdb, 0x2a, 0xbe,
  0x29, 0x59, 0xa7, 0x3e, 0x73, 0x12, 0x9c, 0x3e, 0x00, 0xa5, 0x4e, 0xbe,
  0xd0, 0xe2, 0xee, 0x3c, 0x9d, 0x83, 0x9d, 0xbd, 0x0e, 0x0e, 0x66, 0xbe,
  0xba, 0xa9, 0x1b, 0x3e, 0x92, 0x64, 0x33, 0xbe, 0x30, 0x12, 0x87, 0xbe,
  0xbe, 0xab, 0x37, 0xbe, 0xd2, 0x4d, 0x68, 0x3e, 0xca, 0x2a, 0x67, 0xbe,
  0x44, 0x7d, 0x00, 0xbe, 0x1c, 0x92, 0xc0, 0x3d, 0xaa, 0x5d, 0x44, 0x3e,
  0x11, 0x8f, 0xcc, 0xbe, 0x16, 0x1d, 0x6b, 0x3e, 0x57, 0xb0, 0xb9, 0x3e,
  0xb0, 0x31, 0xd1, 0x3c, 0x71, 0x36, 0xc1, 0x3e, 0x52, 0xb1, 0x43, 0x3e,
  0x2d, 0x3c, 0xcd, 0xbe, 0xbd, 0xbc, 0xd4, 0x3e, 0x83, 0xc2, 0xd7, 0xbd,
  0x22, 0x2b, 0x06, 0x3d, 0x33, 0xc8, 0x8d, 0x3e, 0xc0, 0x88, 0x9c, 0xbc,
  0xde, 0x86, 0x15, 0xbe, 0x99, 0x95, 0xc7, 0xbe, 0x97, 0x87, 0x17, 0x3f,
  0x82, 0xaf, 0x53, 0x3e, 0x87, 0x43, 0xfe, 0xbe, 0xd3, 0x34, 0x51, 0x3e,
  0x06, 0xf3, 0x62, 0x3e, 0x21, 0xcf, 0x3b, 0x3e, 0x8d, 0xa6, 0x99, 0x3e,
  0x2c, 0xa0, 0x07, 0x3f, 0x24, 0x70, 0xe1, 0xbd, 0x97, 0xc9, 0x86, 0xbe,
  0x7c, 0xea, 0xd6, 0xbe, 0xe0, 0x0e, 0x28, 0x3c, 0x27, 0x79, 0xdd, 0xbe,
  0xc6, 0x90, 0x77, 0x3e, 0xcf, 0x39, 0x67, 0xbe, 0x12, 0x1e, 0xd5, 0xbe,
  0x4d, 0xf9, 0xaf, 0xbe, 0x63, 0xd4, 0x90, 0xbe, 0x2c, 0x2d, 0x9a, 0x3d,
  0x10, 0x37, 0x82, 0x3c, 0x0d, 0xc6, 0x4a, 0xbe, 0x49, 0x1c, 0xd8, 0xbe,
  0x4b, 0x4b, 0xda, 0xbe, 0x26, 0xd5, 0x81, 0xbe, 0x0e, 0x4e, 0x9a, 0xbe,
  0x67, 0x97, 0xc7, 0x3e, 0x81, 0xfb, 0xed, 0x3e, 0x2a, 0xb1, 0xcd, 0x3e,
  0xb7, 0x5c, 0x88, 0xbe, 0xc0, 0x37, 0x72, 0x3d, 0x11, 0xb2, 0x1b, 0x3e,
  0x5b, 0xf8, 0xc2, 0x3e, 0x1a, 0xf0, 0x83, 0x3e, 0x69, 0x27, 0x60, 0xbe,
  0xe6, 0x63, 0x7a, 0xbe, 0x4c, 0x96, 0xb6, 0xbe, 0xe0, 0x15, 0x62, 0x3d,
  0x2e, 0x9a, 0xc5, 0x3e, 0x7f, 0xaa, 0xd3, 0x3e, 0xf2, 0xbd, 0x52, 0x3e,
  0x1f, 0xcf, 0xd1, 0x3e, 0x8a, 0x58, 0xb8, 0xbe, 0x8e, 0x26, 0x6b, 0x3e,
  0x00, 0xf7, 0xcd, 0xba, 0x8b, 0x6f, 0x52, 0xbe, 0xa4, 0x86, 0xe8, 0x3d,
  0x64, 0x94, 0xbb, 0x3d, 0xef, 0xda, 0xd0, 0xbe, 0x21, 0x49, 0x5d, 0xbe,
  0x48, 0xf8, 0x19, 0xbe, 0x16, 0x43, 0x6b, 0xbe, 0x4f, 0x7d, 0xcd, 0x3e,
  0x23, 0x7d, 0xc6, 0x3e, 0xbf, 0xbf, 0xbd, 0x3e, 0xc0, 0x1a, 0xa2, 0xbd,
  0x1a, 0x37, 0x82, 0xbe, 0x00, 0xb5, 0xb3, 0x3c, 0x00, 0xcb, 0x41, 0xbb,
  0xf9, 0x38, 0xb5, 0x3d, 0xd0, 0x6b, 0x43, 0x3e, 0xe3, 0xec, 0x54, 0x3d,
  0xf5, 0x5f, 0x9f, 0xbe, 0x4e, 0x83, 0x23, 0x3e, 0x94, 0x92, 0x65, 0x3d,
  0xc0, 0x69, 0xc6, 0xbe, 0x65, 0xb5, 0x85, 0x3e, 0xec, 0x0f, 0xda, 0x3e,
  0x01, 0x77, 0x8d, 0x3e, 0xfb, 0x48, 0xaf, 0x3e, 0xe2, 0x65, 0x0e, 0xbe,
  0xcb, 0x12, 0x90, 0xbe, 0x59, 0x87, 0xde, 0xbb, 0x38, 0x1f, 0xdb, 0xbd,
  0x45, 0x44, 0xc3, 0x3e, 0xd6, 0x88, 0x21, 0xbf, 0xbc, 0x91, 0x1c, 0x3d,
  0xe2, 0x2c, 0x24, 0xbe, 0x1c, 0xad, 0x9a, 0x3d, 0xf8, 0x03, 0xe9, 0xbe,
  0x01, 0x7a, 0x7a, 0xbe, 0xb6, 0x90, 0xf2, 0x3e, 0x51, 0xdf, 0x3b, 0xbe,
  0xf5, 0xb0, 0xb2, 0xbe, 0xf8, 0x75, 0xd5, 0x3d, 0x2c, 0x97, 0xb2, 0x3d,
  0x39, 0xf0, 0xbb, 0x3e, 0xbe, 0x2d, 0xb9, 0x3e, 0x26, 0x8c, 0x42, 0x3e,
  0x00, 0x00, 0x00, 0x00, 0x66, 0xfd, 0xff, 0xff, 0x04, 0x00, 0x00, 0x00,
  0x40, 0x00, 0x00, 0x00, 0xd5, 0x2e, 0x96, 0xbe, 0x00, 0x00, 0x07, 0xb9,
  0x6d, 0x10, 0x7e, 0x3d, 0x7c, 0x76, 0x8a, 0x3c, 0x05, 0xa5, 0x53, 0x3e,
  0x56, 0x24, 0x98, 0xbe, 0x54, 0xf8, 0xce, 0x3d, 0x92, 0xd7, 0xab, 0x3e,
  0x29, 0xe0, 0xe3, 0x3d, 0xc6, 0x41, 0x9f, 0xbe, 0x0e, 0xa8, 0xca, 0x3e,
  0x61, 0xc7, 0xe2, 0x3b, 0x34, 0xbf, 0xdf, 0xbd, 0xc0, 0xa7, 0x16, 0x3e,
  0x4a, 0xd8, 0xdd, 0x3d, 0x1b, 0x41, 0x96, 0x3c, 0x00, 0x00, 0x00, 0x00,
  0xb6, 0xfd, 0xff, 0xff, 0x04, 0x00, 0x00, 0x00, 0x04, 0x00, 0x00, 0x00,
  0xa0, 0x4c, 0xbb, 0xbc, 0xc6, 0xfd, 0xff, 0xff, 0x04, 0x00, 0x00, 0x00,
  0x40, 0x00, 0x00, 0x00, 0xeb, 0x53, 0x1c, 0x3e, 0xa3, 0x17, 0xdc, 0x3d,
  0x3f, 0x53, 0xfc, 0x3c, 0x8c, 0x27, 0x05, 0x3f, 0xd6, 0x1e, 0x46, 0x3d,
  0x04, 0xef, 0x8c, 0xbd, 0xe2, 0x28, 0xb4, 0xbd, 0x11, 0xa7, 0x99, 0xbe,
  0x52, 0xe2, 0xa7, 0x3b, 0xfa, 0x57, 0x10, 0x3e, 0x8c, 0xcf, 0xbc, 0x3e,
  0x2c, 0xe2, 0x03, 0x3f, 0x3d, 0xfe, 0x63, 0xbe, 0x00, 0xb2, 0x01, 0xbe,
  0x69, 0x7b, 0xa3, 0x3e, 0x27, 0xb8, 0x71, 0x3e, 0x00, 0x00, 0x00, 0x00,
  0x16, 0xfe, 0xff, 0xff, 0x04, 0x00, 0x00, 0x00, 0x40, 0x00, 0x00, 0x00,
  0xf9, 0xd1, 0x1b, 0xbe, 0x3a, 0xeb, 0x2a, 0xbd, 0xc7, 0x92, 0xc8, 0xbd,
  0xa4, 0x0b, 0x8e, 0xbe, 0x25, 0xed, 0xbe, 0xbd, 0xa3, 0x0c, 0x09, 0xbc,
  0x95, 0x30, 0x79, 0xbc, 0x57, 0x60, 0x65, 0x3e, 0xe7, 0x8d, 0xbe, 0x3e,
  0x77, 0x24, 0xd3, 0x3e, 0x5f, 0x05, 0x58, 0x3c, 0x9a, 0x11, 0xfb, 0xbd,
  0xe9, 0x4f, 0x90, 0xbd, 0xea, 0x9b, 0x3a, 0x3f, 0xb4, 0x65, 0x4a, 0xbc,
  0x8d, 0x09, 0x07, 0x3f, 0x00, 0x00, 0x00, 0x00, 0x66, 0xfe, 0xff, 0xff,
  0x04, 0x00, 0x00, 0x00, 0x40, 0x00, 0x00, 0x00, 0xc5, 0x30, 0xcc, 0xbc,
  0x6a, 0xbb, 0xc6, 0x3e, 0x57, 0x6a, 0x94, 0x3e, 0x1d, 0x30, 0x3a, 0xbf,
  0x42, 0x86, 0x87, 0x3e, 0x1e, 0x6b, 0x1d, 0xbf, 0x21, 0x05, 0xb1, 0x3e,
  0x2b, 0x81, 0xef, 0xbe, 0x48, 0xe6, 0xfc, 0xbc, 0x20, 0x36, 0xc1, 0x3e,
  0xde, 0x6f, 0xf8, 0x3e, 0xdb, 0x82, 0x1c, 0xbd, 0xec, 0x59, 0xd9, 0xbd,
  0x7f, 0x7e, 0x87, 0x3d, 0xee, 0xa8, 0xc4, 0xbe, 0x52, 0x32, 0x3b, 0x3e,
  0x00, 0x00, 0x00, 0x00, 0xb6, 0xfe, 0xff, 0xff, 0x04, 0x00, 0x00, 0x00,
  0x40, 0x00, 0x00, 0x00, 0x47, 0xd4, 0x01, 0xbf, 0xcc, 0xb4, 0x2f, 0x3e,
  0x8d, 0x94, 0xd4, 0xbb, 0x9c, 0x17, 0xec, 0x3e, 0xff, 0x09, 0xae, 0x3b,
  0x44, 0x9c, 0x21, 0xbe, 0xc5, 0xde, 0x6e, 0x3e, 0x5b, 0x37, 0x30, 0x3f,
  0xce, 0x81, 0x82, 0xbe, 0x00, 0x00, 0x00, 0x00, 0x9b, 0x6a, 0xeb, 0xbe,
  0xbc, 0x3e, 0x9e, 0x3e, 0x0f, 0x38, 0x71, 0x3d, 0xc4, 0x52, 0xc9, 0x3e,
  0x8f, 0xee, 0xb4, 0xbd, 0x61, 0xc2, 0xad, 0x3e, 0x00, 0x00, 0x00, 0x00,
  0x06, 0xff, 0xff, 0xff, 0x04, 0x00, 0x00, 0x00, 0x40, 0x00, 0x00, 0x00,
  0xd4, 0x16, 0x08, 0xbf, 0x90, 0x96, 0x7b, 0x3d, 0x00, 0x00, 0x00, 0x00,
  0xec, 0xd7, 0xe3, 0xbd, 0x1e, 0x4a, 0x8d, 0x3e, 0x09, 0xa1, 0x09, 0x3e,
  0x87, 0x36, 0xb2, 0xbe, 0xe4, 0xac, 0xbf, 0xbe, 0x55, 0xca, 0x9f, 0x3c,
  0x1f, 0xdd, 0x2f, 0xbd, 0x23, 0xa7, 0xa8, 0x3e, 0x00, 0x00, 0x00, 0x00,
  0x24, 0xdc, 0x2d, 0x3e, 0x9c, 0xbf, 0xf6, 0x3e, 0x01, 0x9c, 0x02, 0x3e,
  0x6a, 0x58, 0x32, 0x3f, 0x00, 0x00, 0x00, 0x00, 0x56, 0xff, 0xff, 0xff,
  0x04, 0x00, 0x00, 0x00, 0x40, 0x00, 0x00, 0x00, 0xab, 0xf7, 0xad, 0xbd,
  0x5c, 0x39, 0xa7, 0xbc, 0x50, 0x81, 0x64, 0xbd, 0x01, 0xe4, 0x2a, 0x3f,
  0x52, 0x0b, 0x45, 0x3f, 0xf3, 0x70, 0x84, 0xbc, 0xaa, 0x4a, 0xd9, 0xbe,
  0x7a, 0x85, 0x1f, 0xbf, 0x3c, 0x1e, 0x24, 0xbe, 0xe6, 0x9f, 0x15, 0xbf,
  0xc5, 0x9a, 0x22, 0x3c, 0x00, 0x00, 0x00, 0x00, 0xa6, 0x0c, 0x31, 0xbf,
  0x20, 0xdd, 0x7b, 0x3e, 0xfe, 0x4f, 0x9f, 0x3e, 0x00, 0x00, 0x00, 0x00,
  0x00, 0x00, 0x00, 0x00, 0xa6, 0xff, 0xff, 0xff, 0x04, 0x00, 0x00, 0x00,
  0x40, 0x00, 0x00, 0x00, 0x00, 0x00, 0x00, 0x00, 0x63, 0x04, 0x34, 0xbf,
  0x87, 0x78, 0x21, 0x3f, 0x00, 0x00, 0x00, 0x00, 0x00, 0x00, 0x00, 0x00,
  0x9c, 0x69, 0x92, 0x3e, 0x00, 0x00, 0x00, 0x00, 0x7f, 0x6b, 0xcd, 0x3e,
  0xd2, 0x99, 0x6b, 0xbc, 0x00, 0x00, 0x00, 0x00, 0x83, 0x64, 0x1c, 0x3f,
  0x00, 0x00, 0x00, 0x00, 0x28, 0x65, 0x27, 0xbf, 0x00, 0x00, 0x00, 0x00,
  0xce, 0xed, 0x28, 0xbf, 0xac, 0x87, 0x06, 0x3f, 0x00, 0x00, 0x00, 0x00,
  0x00, 0x00, 0x00, 0x00, 0x00, 0x00, 0x00, 0x00, 0x00, 0x00, 0x06, 0x00,
  0x08, 0x00, 0x04, 0x00, 0x06, 0x00, 0x00, 0x00, 0x04, 0x00, 0x00, 0x00,
  0x40, 0x00, 0x00, 0x00, 0x00, 0x00, 0x00, 0x00, 0x00, 0x00, 0x00, 0x00,
  0x48, 0xcb, 0x65, 0x3e, 0x31, 0x96, 0x04, 0xbf, 0x2d, 0xf2, 0x26, 0x3f,
  0x00, 0x00, 0x00, 0x00, 0x6a, 0x9b, 0x4b, 0xbf, 0xfa, 0x7b, 0x43, 0xbf,
  0x56, 0x4c, 0x10, 0x3f, 0x00, 0x00, 0x00, 0x00, 0x3e, 0xff, 0x42, 0xbf,
  0xc3, 0xa7, 0x47, 0xbe, 0x00, 0x00, 0x00, 0x00, 0xf9, 0x9c, 0x47, 0xbf,
  0xae, 0xca, 0x33, 0xbf, 0xbb, 0x42, 0xf0, 0xbe, 0x00, 0x00, 0x00, 0x00,
  0x00, 0x00, 0x00, 0x00, 0x00, 0x00, 0x00, 0x00, 0x90, 0xf4, 0xff, 0xff,
  0x00, 0x00, 0x00, 0x00, 0x00, 0x00, 0x00, 0x00, 0x00, 0x00, 0x00, 0x00,
  0xa0, 0xf4, 0xff, 0xff, 0x00, 0x00, 0x00, 0x00, 0x00, 0x00, 0x00, 0x00,
  0x0f, 0x00, 0x00, 0x00, 0x4d, 0x4c, 0x49, 0x52, 0x20, 0x43, 0x6f, 0x6e,
  0x76, 0x65, 0x72, 0x74, 0x65, 0x64, 0x2e, 0x00, 0x01, 0x00, 0x00, 0x00,
  0x14, 0x00, 0x00, 0x00, 0x00, 0x00, 0x0e, 0x00, 0x18, 0x00, 0x04, 0x00,
  0x08, 0x00, 0x0c, 0x00, 0x10, 0x00, 0x14, 0x00, 0x0e, 0x00, 0x00, 0x00,
  0x50, 0x02, 0x00, 0x00, 0x44, 0x02, 0x00, 0x00, 0x38, 0x02, 0x00, 0x00,
  0x14, 0x00, 0x00, 0x00, 0x04, 0x00, 0x00, 0x00, 0x04, 0x00, 0x00, 0x00,
  0x6d, 0x61, 0x69, 0x6e, 0x00, 0x00, 0x00, 0x00, 0x09, 0x00, 0x00, 0x00,
  0xe0, 0x01, 0x00, 0x00, 0x98, 0x01, 0x00, 0x00, 0x50, 0x01, 0x00, 0x00,
  0x18, 0x01, 0x00, 0x00, 0xe0, 0x00, 0x00, 0x00, 0xa8, 0x00, 0x00, 0x00,
  0x70, 0x00, 0x00, 0x00, 0x38, 0x00, 0x00, 0x00, 0x04, 0x00, 0x00, 0x00,
  0x96, 0xfe, 0xff, 0xff, 0x00, 0x00, 0x00, 0x08, 0x18, 0x00, 0x00, 0x00,
  0x0c, 0x00, 0x00, 0x00, 0x04, 0x00, 0x00, 0x00, 0x38, 0xf5, 0xff, 0xff,
  0x01, 0x00, 0x00, 0x00, 0x1b, 0x00, 0x00, 0x00, 0x03, 0x00, 0x00, 0x00,
  0x1a, 0x00, 0x00, 0x00, 0x12, 0x00, 0x00, 0x00, 0x09, 0x00, 0x00, 0x00,
  0xc6, 0xfe, 0xff, 0xff, 0x00, 0x00, 0x00, 0x08, 0x1c, 0x00, 0x00, 0x00,
  0x10, 0x00, 0x00, 0x00, 0x04, 0x00, 0x00, 0x00, 0x72, 0xfe, 0xff, 0xff,
  0x00, 0x00, 0x00, 0x01, 0x01, 0x00, 0x00, 0x00, 0x1a, 0x00, 0x00, 0x00,
  0x03, 0x00, 0x00, 0x00, 0x19, 0x00, 0x00, 0x00, 0x11, 0x00, 0x00, 0x00,
  0x08, 0x00, 0x00, 0x00, 0xfa, 0xfe, 0xff, 0xff, 0x00, 0x00, 0x00, 0x08,
  0x1c, 0x00, 0x00, 0x00, 0x10, 0x00, 0x00, 0x00, 0x04, 0x00, 0x00, 0x00,
  0xa6, 0xfe, 0xff, 0xff, 0x00, 0x00, 0x00, 0x01, 0x01, 0x00, 0x00, 0x00,
  0x19, 0x00, 0x00, 0x00, 0x03, 0x00, 0x00, 0x00, 0x18, 0x00, 0x00, 0x00,
  0x10, 0x00, 0x00, 0x00, 0x07, 0x00, 0x00, 0x00, 0x2e, 0xff, 0xff, 0xff,
  0x00, 0x00, 0x00, 0x08, 0x1c, 0x00, 0x00, 0x00, 0x10, 0x00, 0x00, 0x00,
  0x04, 0x00, 0x00, 0x00, 0xda, 0xfe, 0xff, 0xff, 0x00, 0x00, 0x00, 0x01,
  0x01, 0x00, 0x00, 0x00, 0x18, 0x00, 0x00, 0x00, 0x03, 0x00, 0x00, 0x00,
  0x17, 0x00, 0x00, 0x00, 0x0f, 0x00, 0x00, 0x00, 0x06, 0x00, 0x00, 0x00,
  0x62, 0xff, 0xff, 0xff, 0x00, 0x00, 0x00, 0x08, 0x1c, 0x00, 0x00, 0x00,
  0x10, 0x00, 0x00, 0x00, 0x04, 0x00, 0x00, 0x00, 0x0e, 0xff, 0xff, 0xff,
  0x00, 0x00, 0x00, 0x01, 0x01, 0x00, 0x00, 0x00, 0x17, 0x00, 0x00, 0x00,
  0x03, 0x00, 0x00, 0x00, 0x16, 0x00, 0x00, 0x00, 0x0e, 0x00, 0x00, 0x00,
  0x05, 0x00, 0x00, 0x00, 0x96, 0xff, 0xff, 0xff, 0x00, 0x00, 0x00, 0x08,
  0x1c, 0x00, 0x00, 0x00, 0x10, 0x00, 0x00, 0x00, 0x04, 0x00, 0x00, 0x00,
  0x42, 0xff, 0xff, 0xff, 0x00, 0x00, 0x00, 0x01, 0x01, 0x00, 0x00, 0x00,
  0x16, 0x00, 0x00, 0x00, 0x03, 0x00, 0x00, 0x00, 0x15, 0x00, 0x00, 0x00,
  0x0d, 0x00, 0x00, 0x00, 0x04, 0x00, 0x00, 0x00, 0xca, 0xff, 0xff, 0xff,
  0x00, 0x00, 0x00, 0x08, 0x1c, 0x00, 0x00, 0x00, 0x10, 0x00, 0x00, 0x00,
  0x04, 0x00, 0x00, 0x00, 0x76, 0xff, 0xff, 0xff, 0x00, 0x00, 0x00, 0x01,
  0x01, 0x00, 0x00, 0x00, 0x15, 0x00, 0x00, 0x00, 0x03, 0x00, 0x00, 0x00,
  0x14, 0x00, 0x00, 0x00, 0x0c, 0x00, 0x00, 0x00, 0x03, 0x00, 0x00, 0x00,
  0x00, 0x00, 0x0e, 0x00, 0x14, 0x00, 0x00, 0x00, 0x08, 0x00, 0x0c, 0x00,
  0x07, 0x00, 0x10, 0x00, 0x0e, 0x00, 0x00, 0x00, 0x00, 0x00, 0x00, 0x08,
  0x1c, 0x00, 0x00, 0x00, 0x10, 0x00, 0x00, 0x00, 0x04, 0x00, 0x00, 0x00,
  0xba, 0xff, 0xff, 0xff, 0x00, 0x00, 0x00, 0x01, 0x01, 0x00, 0x00, 0x00,
  0x14, 0x00, 0x00, 0x00, 0x03, 0x00, 0x00, 0x00, 0x13, 0x00, 0x00, 0x00,
  0x0b, 0x00, 0x00, 0x00, 0x02, 0x00, 0x00, 0x00, 0x00, 0x00, 0x0e, 0x00,
  0x16, 0x00, 0x00, 0x00, 0x08, 0x00, 0x0c, 0x00, 0x07, 0x00, 0x10, 0x00,
  0x0e, 0x00, 0x00, 0x00, 0x00, 0x00, 0x00, 0x08, 0x24, 0x00, 0x00, 0x00,
  0x18, 0x00, 0x00, 0x00, 0x0c, 0x00, 0x00, 0x00, 0x00, 0x00, 0x06, 0x00,
  0x08, 0x00, 0x07, 0x00, 0x06, 0x00, 0x00, 0x00, 0x00, 0x00, 0x00, 0x01,
  0x01, 0x00, 0x00, 0x00, 0x13, 0x00, 0x00, 0x00, 0x03, 0x00, 0x00, 0x00,
  0x00, 0x00, 0x00, 0x00, 0x0a, 0x00, 0x00, 0x00, 0x01, 0x00, 0x00, 0x00,
  0x01, 0x00, 0x00, 0x00, 0x1b, 0x00, 0x00, 0x00, 0x01, 0x00, 0x00, 0x00,
  0x00, 0x00, 0x00, 0x00, 0x1c, 0x00, 0x00, 0x00, 0xbc, 0x08, 0x00, 0x00,
  0x5c, 0x08, 0x00, 0x00, 0x08, 0x08, 0x00, 0x00, 0xb4, 0x07, 0x00, 0x00,
  0x60, 0x07, 0x00, 0x00, 0x0c, 0x07, 0x00, 0x00, 0xb8, 0x06, 0x00, 0x00,
  0x64, 0x06, 0x00, 0x00, 0x10, 0x06, 0x00, 0x00, 0xbc, 0x05, 0x00, 0x00,
  0x78, 0x05, 0x00, 0x00, 0x30, 0x05, 0x00, 0x00, 0xe8, 0x04, 0x00, 0x00,
  0xa0, 0x04, 0x00, 0x00, 0x58, 0x04, 0x00, 0x00, 0x10, 0x04, 0x00, 0x00,
  0xc8, 0x03, 0x00, 0x00, 0x80, 0x03, 0x00, 0x00, 0x38, 0x03, 0x00, 0x00,
  0xdc, 0x02, 0x00, 0x00, 0x7c, 0x02, 0x00, 0x00, 0x1c, 0x02, 0x00, 0x00,
  0xbc, 0x01, 0x00, 0x00, 0x5c, 0x01, 0x00, 0x00, 0xfc, 0x00, 0x00, 0x00,
  0x9c, 0x00, 0x00, 0x00, 0x3c, 0x00, 0x00, 0x00, 0x04, 0x00, 0x00, 0x00,
  0xc2, 0xf7, 0xff, 0xff, 0x24, 0x00, 0x00, 0x00, 0x1c, 0x00, 0x00, 0x00,
  0x0c, 0x00, 0x00, 0x00, 0x04, 0x00, 0x00, 0x00, 0xb4, 0xf7, 0xff, 0xff,
  0x08, 0x00, 0x00, 0x00, 0x49, 0x64, 0x65, 0x6e, 0x74, 0x69, 0x74, 0x79,
  0x00, 0x00, 0x00, 0x00, 0x02, 0x00, 0x00, 0x00, 0x01, 0x00, 0x00, 0x00,
  0x01, 0x00, 0x00, 0x00, 0xf6, 0xf7, 0xff, 0xff, 0x4c, 0x00, 0x00, 0x00,
  0x1b, 0x00, 0x00, 0x00, 0x0c, 0x00, 0x00, 0x00, 0x04, 0x00, 0x00, 0x00,
  0xe8, 0xf7, 0xff, 0xff, 0x32, 0x00, 0x00, 0x00, 0x73, 0x65, 0x71, 0x75,
  0x65, 0x6e, 0x74, 0x69, 0x61, 0x6c, 0x2f, 0x64, 0x65, 0x6e, 0x73, 0x65,
  0x5f, 0x37, 0x2f, 0x52, 0x65, 0x6c, 0x75, 0x3b, 0x73, 0x65, 0x71, 0x75,
  0x65, 0x6e, 0x74, 0x69, 0x61, 0x6c, 0x2f, 0x64, 0x65, 0x6e, 0x73, 0x65,
  0x5f, 0x37, 0x2f, 0x42, 0x69, 0x61, 0x73, 0x41, 0x64, 0x64, 0x00, 0x00,
  0x02, 0x00, 0x00, 0x00, 0x01, 0x00, 0x00, 0x00, 0x10, 0x00, 0x00, 0x00,
  0x52, 0xf8, 0xff, 0xff, 0x4c, 0x00, 0x00, 0x00, 0x1a, 0x00, 0x00, 0x00,
  0x0c, 0x00, 0x00, 0x00, 0x04, 0x00, 0x00, 0x00, 0x44, 0xf8, 0xff, 0xff,
  0x32, 0x00, 0x00, 0x00, 0x73, 0x65, 0x71, 0x75, 0x65, 0x6e, 0x74, 0x69,
  0x61, 0x6c, 0x2f, 0x64, 0x65, 0x6e, 0x73, 0x65, 0x5f, 0x36, 0x2f, 0x52,
  0x65, 0x6c, 0x75, 0x3b, 0x73, 0x65, 0x71, 0x75, 0x65, 0x6e, 0x74, 0x69,
  0x61, 0x6c, 0x2f, 0x64, 0x65, 0x6e, 0x73, 0x65, 0x5f, 0x36, 0x2f, 0x42,
  0x69, 0x61, 0x73, 0x41, 0x64, 0x64, 0x00, 0x00, 0x02, 0x00, 0x00, 0x00,
  0x01, 0x00, 0x00, 0x00, 0x10, 0x00, 0x00, 0x00, 0xae, 0xf8, 0xff, 0xff,
  0x4c, 0x00, 0x00, 0x00, 0x19, 0x00, 0x00, 0x00, 0x0c, 0x00, 0x00, 0x00,
  0x04, 0x00, 0x00, 0x00, 0xa0, 0xf8, 0xff, 0xff, 0x32, 0x00, 0x00, 0x00,
  0x73, 0x65, 0x71, 0x75, 0x65, 0x6e, 0x74, 0x69, 0x61, 0x6c, 0x2f, 0x64,
  0x65, 0x6e, 0x73, 0x65, 0x5f, 0x35, 0x2f, 0x52, 0x65, 0x6c, 0x75, 0x3b,
  0x73, 0x65, 0x71, 0x75, 0x65, 0x6e, 0x74, 0x69, 0x61, 0x6c, 0x2f, 0x64,
  0x65, 0x6e, 0x73, 0x65, 0x5f, 0x35, 0x2f, 0x42, 0x69, 0x61, 0x73, 0x41,
  0x64, 0x64, 0x00, 0x00, 0x02, 0x00, 0x00, 0x00, 0x01, 0x00, 0x00, 0x00,
  0x10, 0x00, 0x00, 0x00, 0x0a, 0xf9, 0xff, 0xff, 0x4c, 0x00, 0x00, 0x00,
  0x18, 0x00, 0x00, 0x00, 0x0c, 0x00, 0x00, 0x00, 0x04, 0x00, 0x00, 0x00,
  0xfc, 0xf8, 0xff, 0xff, 0x32, 0x00, 0x00, 0x00, 0x73, 0x65, 0x71, 0x75,
  0x65, 0x6e, 0x74, 0x69, 0x61, 0x6c, 0x2f, 0x64, 0x65, 0x6e, 0x73, 0x65,
  0x5f, 0x34, 0x2f, 0x52, 0x65, 0x6c, 0x75, 0x3b, 0x73, 0x65, 0x71, 0x75,
  0x65, 0x6e, 0x74, 0x69, 0x61, 0x6c, 0x2f, 0x64, 0x65, 0x6e, 0x73, 0x65,
  0x5f, 0x34, 0x2f, 0x42, 0x69, 0x61, 0x73, 0x41, 0x64, 0x64, 0x00, 0x00,
  0x02, 0x00, 0x00, 0x00, 0x01, 0x00, 0x00, 0x00, 0x10, 0x00, 0x00, 0x00,
  0x66, 0xf9, 0xff, 0xff, 0x4c, 0x00, 0x00, 0x00, 0x17, 0x00, 0x00, 0x00,
  0x0c, 0x00, 0x00, 0x00, 0x04, 0x00, 0x00, 0x00, 0x58, 0xf9, 0xff, 0xff,
  0x32, 0x00, 0x00, 0x00, 0x73, 0x65, 0x71, 0x75, 0x65, 0x6e, 0x74, 0x69,
  0x61, 0x6c, 0x2f, 0x64, 0x65, 0x6e, 0x73, 0x65, 0x5f, 0x33, 0x2f, 0x52,
  0x65, 0x6c, 0x75, 0x3b, 0x73, 0x65, 0x71, 0x75, 0x65, 0x6e, 0x74, 0x69,
  0x61, 0x6c, 0x2f, 0x64, 0x65, 0x6e, 0x73, 0x65, 0x5f, 0x33, 0x2f, 0x42,
  0x69, 0x61, 0x73, 0x41, 0x64, 0x64, 0x00, 0x00, 0x02, 0x00, 0x00, 0x00,
  0x01, 0x00, 0x00, 0x00, 0x10, 0x00, 0x00, 0x00, 0xc2, 0xf9, 0xff, 0xff,
  0x4c, 0x00, 0x00, 0x00, 0x16, 0x00, 0x00, 0x00, 0x0c, 0x00, 0x00, 0x00,
  0x04, 0x00, 0x00, 0x00, 0xb4, 0xf9, 0xff, 0xff, 0x32, 0x00, 0x00, 0x00,
  0x73, 0x65, 0x71, 0x75, 0x65, 0x6e, 0x74, 0x69, 0x61, 0x6c, 0x2f, 0x64,
  0x65, 0x6e, 0x73, 0x65, 0x5f, 0x32, 0x2f, 0x52, 0x65, 0x6c, 0x75, 0x3b,
  0x73, 0x65, 0x71, 0x75, 0x65, 0x6e, 0x74, 0x69, 0x61, 0x6c, 0x2f, 0x64,
  0x65, 0x6e, 0x73, 0x65, 0x5f, 0x32, 0x2f, 0x42, 0x69, 0x61, 0x73, 0x41,
  0x64, 0x64, 0x00, 0x00, 0x02, 0x00, 0x00, 0x00, 0x01, 0x00, 0x00, 0x00,
  0x10, 0x00, 0x00, 0x00, 0x1e, 0xfa, 0xff, 0xff, 0x4c, 0x00, 0x00, 0x00,
  0x15, 0x00, 0x00, 0x00, 0x0c, 0x00, 0x00, 0x00, 0x04, 0x00, 0x00, 0x00,
  0x10, 0xfa, 0xff, 0xff, 0x32, 0x00, 0x00, 0x00, 0x73, 0x65, 0x71, 0x75,
  0x65, 0x6e, 0x74, 0x69, 0x61, 0x6c, 0x2f, 0x64, 0x65, 0x6e, 0x73, 0x65,
  0x5f, 0x31, 0x2f, 0x52, 0x65, 0x6c, 0x75, 0x3b, 0x73, 0x65, 0x71, 0x75,
  0x65, 0x6e, 0x74, 0x69, 0x61, 0x6c, 0x2f, 0x64, 0x65, 0x6e, 0x73, 0x65,
  0x5f, 0x31, 0x2f, 0x42, 0x69, 0x61, 0x73, 0x41, 0x64, 0x64, 0x00, 0x00,
  0x02, 0x00, 0x00, 0x00, 0x01, 0x00, 0x00, 0x00, 0x10, 0x00, 0x00, 0x00,
  0x7a, 0xfa, 0xff, 0xff, 0x48, 0x00, 0x00, 0x00, 0x14, 0x00, 0x00, 0x00,
  0x0c, 0x00, 0x00, 0x00, 0x04, 0x00, 0x00, 0x00, 0x6c, 0xfa, 0xff, 0xff,
  0x2e, 0x00, 0x00, 0x00, 0x73, 0x65, 0x71, 0x75, 0x65, 0x6e, 0x74, 0x69,
  0x61, 0x6c, 0x2f, 0x64, 0x65, 0x6e, 0x73, 0x65, 0x2f, 0x52, 0x65, 0x6c,
  0x75, 0x3b, 0x73, 0x65, 0x71, 0x75, 0x65, 0x6e, 0x74, 0x69, 0x61, 0x6c,
  0x2f, 0x64, 0x65, 0x6e, 0x73, 0x65, 0x2f, 0x42, 0x69, 0x61, 0x73, 0x41,
  0x64, 0x64, 0x00, 0x00, 0x02, 0x00, 0x00, 0x00, 0x01, 0x00, 0x00, 0x00,
  0x10, 0x00, 0x00, 0x00, 0xd2, 0xfa, 0xff, 0xff, 0x34, 0x00, 0x00, 0x00,
  0x13, 0x00, 0x00, 0x00, 0x0c, 0x00, 0x00, 0x00, 0x04, 0x00, 0x00, 0x00,
  0xc4, 0xfa, 0xff, 0xff, 0x19, 0x00, 0x00, 0x00, 0x73, 0x65, 0x71, 0x75,
  0x65, 0x6e, 0x74, 0x69, 0x61, 0x6c, 0x2f, 0x64, 0x65, 0x6e, 0x73, 0x65,
  0x5f, 0x38, 0x2f, 0x4d, 0x61, 0x74, 0x4d, 0x75, 0x6c, 0x00, 0x00, 0x00,
  0x02, 0x00, 0x00, 0x00, 0x01, 0x00, 0x00, 0x00, 0x10, 0x00, 0x00, 0x00,
  0x16, 0xfb, 0xff, 0xff, 0x34, 0x00, 0x00, 0x00, 0x12, 0x00, 0x00, 0x00,
  0x0c, 0x00, 0x00, 0x00, 0x04, 0x00, 0x00, 0x00, 0x08, 0xfb, 0xff, 0xff,
  0x19, 0x00, 0x00, 0x00, 0x73, 0x65, 0x71, 0x75, 0x65, 0x6e, 0x74, 0x69,
  0x61, 0x6c, 0x2f, 0x64, 0x65, 0x6e, 0x73, 0x65, 0x5f, 0x37, 0x2f, 0x4d,
  0x61, 0x74, 0x4d, 0x75, 0x6c, 0x00, 0x00, 0x00, 0x02, 0x00, 0x00, 0x00,
  0x10, 0x00, 0x00, 0x00, 0x10, 0x00, 0x00, 0x00, 0x5a, 0xfb, 0xff, 0xff,
  0x34, 0x00, 0x00, 0x00, 0x11, 0x00, 0x00, 0x00, 0x0c, 0x00, 0x00, 0x00,
  0x04, 0x00, 0x00, 0x00, 0x4c, 0xfb, 0xff, 0xff, 0x19, 0x00, 0x00, 0x00,
  0x73, 0x65, 0x71, 0x75, 0x65, 0x6e, 0x74, 0x69, 0x61, 0x6c, 0x2f, 0x64,
  0x65, 0x6e, 0x73, 0x65, 0x5f, 0x36, 0x2f, 0x4d, 0x61, 0x74, 0x4d, 0x75,
  0x6c, 0x00, 0x00, 0x00, 0x02, 0x00, 0x00, 0x00, 0x10, 0x00, 0x00, 0x00,
  0x10, 0x00, 0x00, 0x00, 0x9e, 0xfb, 0xff, 0xff, 0x34, 0x00, 0x00, 0x00,
  0x10, 0x00, 0x00, 0x00, 0x0c, 0x00, 0x00, 0x00, 0x04, 0x00, 0x00, 0x00,
  0x90, 0xfb, 0xff, 0xff, 0x19, 0x00, 0x00, 0x00, 0x73, 0x65, 0x71, 0x75,
  0x65, 0x6e, 0x74, 0x69, 0x61, 0x6c, 0x2f, 0x64, 0x65, 0x6e, 0x73, 0x65,
  0x5f, 0x35, 0x2f, 0x4d, 0x61, 0x74, 0x4d, 0x75, 0x6c, 0x00, 0x00, 0x00,
  0x02, 0x00, 0x00, 0x00, 0x10, 0x00, 0x00, 0x00, 0x10, 0x00, 0x00, 0x00,
  0xe2, 0xfb, 0xff, 0xff, 0x34, 0x00, 0x00, 0x00, 0x0f, 0x00, 0x00, 0x00,
  0x0c, 0x00, 0x00, 0x00, 0x04, 0x00, 0x00, 0x00, 0xd4, 0xfb, 0xff, 0xff,
  0x19, 0x00, 0x00, 0x00, 0x73, 0x65, 0x71, 0x75, 0x65, 0x6e, 0x74, 0x69,
  0x61, 0x6c, 0x2f, 0x64, 0x65, 0x6e, 0x73, 0x65, 0x5f, 0x34, 0x2f, 0x4d,
  0x61, 0x74, 0x4d, 0x75, 0x6c, 0x00, 0x00, 0x00, 0x02, 0x00, 0x00, 0x00,
  0x10, 0x00, 0x00, 0x00, 0x10, 0x00, 0x00, 0x00, 0x26, 0xfc, 0xff, 0xff,
  0x34, 0x00, 0x00, 0x00, 0x0e, 0x00, 0x00, 0x00, 0x0c, 0x00, 0x00, 0x00,
  0x04, 0x00, 0x00, 0x00, 0x18, 0xfc, 0xff, 0xff, 0x19, 0x00, 0x00, 0x00,
  0x73, 0x65, 0x71, 0x75, 0x65, 0x6e, 0x74, 0x69, 0x61, 0x6c, 0x2f, 0x64,
  0x65, 0x6e, 0x73, 0x65, 0x5f, 0x33, 0x2f, 0x4d, 0x61, 0x74, 0x4d, 0x75,
  0x6c, 0x00, 0x00, 0x00, 0x02, 0x00, 0x00, 0x00, 0x10, 0x00, 0x00, 0x00,
  0x10, 0x00, 0x00, 0x00, 0x6a, 0xfc, 0xff, 0xff, 0x34, 0x00, 0x00, 0x00,
  0x0d, 0x00, 0x00, 0x00, 0x0c, 0x00, 0x00, 0x00, 0x04, 0x00, 0x00, 0x00,
  0x5c, 0xfc, 0xff, 0xff, 0x19, 0x00, 0x00, 0x00, 0x73, 0x65, 0x71, 0x75,
  0x65, 0x6e, 0x74, 0x69, 0x61, 0x6c, 0x2f, 0x64, 0x65, 0x6e, 0x73, 0x65,
  0x5f, 0x32, 0x2f, 0x4d, 0x61, 0x74, 0x4d, 0x75, 0x6c, 0x00, 0x00, 0x00,
  0x02, 0x00, 0x00, 0x00, 0x10, 0x00, 0x00, 0x00, 0x10, 0x00, 0x00, 0x00,
  0xae, 0xfc, 0xff, 0xff, 0x34, 0x00, 0x00, 0x00, 0x0c, 0x00, 0x00, 0x00,
  0x0c, 0x00, 0x00, 0x00, 0x04, 0x00, 0x00, 0x00, 0xa0, 0xfc, 0xff, 0xff,
  0x19, 0x00, 0x00, 0x00, 0x73, 0x65, 0x71, 0x75, 0x65, 0x6e, 0x74, 0x69,
  0x61, 0x6c, 0x2f, 0x64, 0x65, 0x6e, 0x73, 0x65, 0x5f, 0x31, 0x2f, 0x4d,
  0x61, 0x74, 0x4d, 0x75, 0x6c, 0x00, 0x00, 0x00, 0x02, 0x00, 0x00, 0x00,
  0x10, 0x00, 0x00, 0x00, 0x10, 0x00, 0x00, 0x00, 0xf2, 0xfc, 0xff, 0xff,
  0x30, 0x00, 0x00, 0x00, 0x0b, 0x00, 0x00, 0x00, 0x0c, 0x00, 0x00, 0x00,
  0x04, 0x00, 0x00, 0x00, 0xe4, 0xfc, 0xff, 0xff, 0x17, 0x00, 0x00, 0x00,
  0x73, 0x65, 0x71, 0x75, 0x65, 0x6e, 0x74, 0x69, 0x61, 0x6c, 0x2f, 0x64,
  0x65, 0x6e, 0x73, 0x65, 0x2f, 0x4d, 0x61, 0x74, 0x4d, 0x75, 0x6c, 0x00,
  0x02, 0x00, 0x00, 0x00, 0x10, 0x00, 0x00, 0x00, 0x01, 0x00, 0x00, 0x00,
  0x32, 0xfd, 0xff, 0xff, 0x44, 0x00, 0x00, 0x00, 0x0a, 0x00, 0x00, 0x00,
  0x0c, 0x00, 0x00, 0x00, 0x04, 0x00, 0x00, 0x00, 0x24, 0xfd, 0xff, 0xff,
  0x29, 0x00, 0x00, 0x00, 0x73, 0x65, 0x71, 0x75, 0x65, 0x6e, 0x74, 0x69,
  0x61, 0x6c, 0x2f, 0x64, 0x65, 0x6e, 0x73, 0x65, 0x5f, 0x38, 0x2f, 0x42,
  0x69, 0x61, 0x73, 0x41, 0x64, 0x64, 0x2f, 0x52, 0x65, 0x61, 0x64, 0x56,
  0x61, 0x72, 0x69, 0x61, 0x62, 0x6c, 0x65, 0x4f, 0x70, 0x00, 0x00, 0x00,
  0x01, 0x00, 0x00, 0x00, 0x01, 0x00, 0x00, 0x00, 0x82, 0xfd, 0xff, 0xff,
  0x44, 0x00, 0x00, 0x00, 0x09, 0x00, 0x00, 0x00, 0x0c, 0x00, 0x00, 0x00,
  0x04, 0x00, 0x00, 0x00, 0x74, 0xfd, 0xff, 0xff, 0x29, 0x00, 0x00, 0x00,
  0x73, 0x65, 0x71, 0x75, 0x65, 0x6e, 0x74, 0x69, 0x61, 0x6c, 0x2f, 0x64,
  0x65, 0x6e, 0x73, 0x65, 0x5f, 0x37, 0x2f, 0x42, 0x69, 0x61, 0x73, 0x41,
  0x64, 0x64, 0x2f, 0x52, 0x65, 0x61, 0x64, 0x56, 0x61, 0x72, 0x69, 0x61,
  0x62, 0x6c, 0x65, 0x4f, 0x70, 0x00, 0x00, 0x00, 0x01, 0x00, 0x00, 0x00,
  0x10, 0x00, 0x00, 0x00, 0xd2, 0xfd, 0xff, 0xff, 0x44, 0x00, 0x00, 0x00,
  0x08, 0x00, 0x00, 0x00, 0x0c, 0x00, 0x00, 0x00, 0x04, 0x00, 0x00, 0x00,
  0xc4, 0xfd, 0xff, 0xff, 0x29, 0x00, 0x00, 0x00, 0x73, 0x65, 0x71, 0x75,
  0x65, 0x6e, 0x74, 0x69, 0x61, 0x6c, 0x2f, 0x64, 0x65, 0x6e, 0x73, 0x65,
  0x5f, 0x36, 0x2f, 0x42, 0x69, 0x61, 0x73, 0x41, 0x64, 0x64, 0x2f, 0x52,
  0x65, 0x61, 0x64, 0x56, 0x61, 0x72, 0x69, 0x61, 0x62, 0x6c, 0x65, 0x4f,
  0x70, 0x00, 0x00, 0x00, 0x01, 0x00, 0x00, 0x00, 0x10, 0x00, 0x00, 0x00,
  0x22, 0xfe, 0xff, 0xff, 0x44, 0x00, 0x00, 0x00, 0x07, 0x00, 0x00, 0x00,
  0x0c, 0x00, 0x00, 0x00, 0x04, 0x00, 0x00, 0x00, 0x14, 0xfe, 0xff, 0xff,
  0x29, 0x00, 0x00, 0x00, 0x73, 0x65, 0x71, 0x75, 0x65, 0x6e, 0x74, 0x69,
  0x61, 0x6c, 0x2f, 0x64, 0x65, 0x6e, 0x73, 0x65, 0x5f, 0x35, 0x2f, 0x42,
  0x69, 0x61, 0x73, 0x41, 0x64, 0x64, 0x2f, 0x52, 0x65, 0x61, 0x64, 0x56,
  0x61, 0x72, 0x69, 0x61, 0x62, 0x6c, 0x65, 0x4f, 0x70, 0x00, 0x00, 0x00,
  0x01, 0x00, 0x00, 0x00, 0x10, 0x00, 0x00, 0x00, 0x72, 0xfe, 0xff, 0xff,
  0x44, 0x00, 0x00, 0x00, 0x06, 0x00, 0x00, 0x00, 0x0c, 0x00, 0x00, 0x00,
  0x04, 0x00, 0x00, 0x00, 0x64, 0xfe, 0xff, 0xff, 0x29, 0x00, 0x00, 0x00,
  0x73, 0x65, 0x71, 0x75, 0x65, 0x6e, 0x74, 0x69, 0x61, 0x6c, 0x2f, 0x64,
  0x65, 0x6e, 0x73, 0x65, 0x5f, 0x34, 0x2f, 0x42, 0x69, 0x61, 0x73, 0x41,
  0x64, 0x64, 0x2f, 0x52, 0x65, 0x61, 0x64, 0x56, 0x61, 0x72, 0x69, 0x61,
  0x62, 0x6c, 0x65, 0x4f, 0x70, 0x00, 0x00, 0x00, 0x01, 0x00, 0x00, 0x00,
  0x10, 0x00, 0x00, 0x00, 0xc2, 0xfe, 0xff, 0xff, 0x44, 0x00, 0x00, 0x00,
  0x05, 0x00, 0x00, 0x00, 0x0c, 0x00, 0x00, 0x00, 0x04, 0x00, 0x00, 0x00,
  0xb4, 0xfe, 0xff, 0xff, 0x29, 0x00, 0x00, 0x00, 0x73, 0x65, 0x71, 0x75,
  0x65, 0x6e, 0x74, 0x69, 0x61, 0x6c, 0x2f, 0x64, 0x65, 0x6e, 0x73, 0x65,
  0x5f, 0x33, 0x2f, 0x42, 0x69, 0x61, 0x73, 0x41, 0x64, 0x64, 0x2f, 0x52,
  0x65, 0x61, 0x64, 0x56, 0x61, 0x72, 0x69, 0x61, 0x62, 0x6c, 0x65, 0x4f,
  0x70, 0x00, 0x00, 0x00, 0x01, 0x00, 0x00, 0x00, 0x10, 0x00, 0x00, 0x00,
  0x12, 0xff, 0xff, 0xff, 0x44, 0x00, 0x00, 0x00, 0x04, 0x00, 0x00, 0x00,
  0x0c, 0x00, 0x00, 0x00, 0x04, 0x00, 0x00, 0x00, 0x04, 0xff, 0xff, 0xff,
  0x29, 0x00, 0x00, 0x00, 0x73, 0x65, 0x71, 0x75, 0x65, 0x6e, 0x74, 0x69,
  0x61, 0x6c, 0x2f, 0x64, 0x65, 0x6e, 0x73, 0x65, 0x5f, 0x32, 0x2f, 0x42,
  0x69, 0x61, 0x73, 0x41, 0x64, 0x64, 0x2f, 0x52, 0x65, 0x61, 0x64, 0x56,
  0x61, 0x72, 0x69, 0x61, 0x62, 0x6c, 0x65, 0x4f, 0x70, 0x00, 0x00, 0x00,
  0x01, 0x00, 0x00, 0x00, 0x10, 0x00, 0x00, 0x00, 0x62, 0xff, 0xff, 0xff,
  0x44, 0x00, 0x00, 0x00, 0x03, 0x00, 0x00, 0x00, 0x0c, 0x00, 0x00, 0x00,
  0x04, 0x00, 0x00, 0x00, 0x54, 0xff, 0xff, 0xff, 0x29, 0x00, 0x00, 0x00,
  0x73, 0x65, 0x71, 0x75, 0x65, 0x6e, 0x74, 0x69, 0x61, 0x6c, 0x2f, 0x64,
  0x65, 0x6e, 0x73, 0x65, 0x5f, 0x31, 0x2f, 0x42, 0x69, 0x61, 0x73, 0x41,
  0x64, 0x64, 0x2f, 0x52, 0x65, 0x61, 0x64, 0x56, 0x61, 0x72, 0x69, 0x61,
  0x62, 0x6c, 0x65, 0x4f, 0x70, 0x00, 0x00, 0x00, 0x01, 0x00, 0x00, 0x00,
  0x10, 0x00, 0x00, 0x00, 0xb2, 0xff, 0xff, 0xff, 0x40, 0x00, 0x00, 0x00,
  0x02, 0x00, 0x00, 0x00, 0x0c, 0x00, 0x00, 0x00, 0x04, 0x00, 0x00, 0x00,
  0xa4, 0xff, 0xff, 0xff, 0x27, 0x00, 0x00, 0x00, 0x73, 0x65, 0x71, 0x75,
  0x65, 0x6e, 0x74, 0x69, 0x61, 0x6c, 0x2f, 0x64, 0x65, 0x6e, 0x73, 0x65,
  0x2f, 0x42, 0x69, 0x61, 0x73, 0x41, 0x64, 0x64, 0x2f, 0x52, 0x65, 0x61,
  0x64, 0x56, 0x61, 0x72, 0x69, 0x61, 0x62, 0x6c, 0x65, 0x4f, 0x70, 0x00,
  0x01, 0x00, 0x00, 0x00, 0x10, 0x00, 0x00, 0x00, 0x00, 0x00, 0x0e, 0x00,
  0x14, 0x00, 0x04, 0x00, 0x00, 0x00, 0x08, 0x00, 0x0c, 0x00, 0x10, 0x00,
  0x0e, 0x00, 0x00, 0x00, 0x28, 0x00, 0x00, 0x00, 0x01, 0x00, 0x00, 0x00,
  0x10, 0x00, 0x00, 0x00, 0x08, 0x00, 0x00, 0x00, 0x04, 0x00, 0x04, 0x00,
  0x04, 0x00, 0x00, 0x00, 0x0b, 0x00, 0x00, 0x00, 0x64, 0x65, 0x6e, 0x73,
  0x65, 0x5f, 0x69, 0x6e, 0x70, 0x75, 0x74, 0x00, 0x02, 0x00, 0x00, 0x00,
  0x01, 0x00, 0x00, 0x00, 0x01, 0x00, 0x00, 0x00, 0x01, 0x00, 0x00, 0x00,
  0x10, 0x00, 0x00, 0x00, 0x00, 0x00, 0x0a, 0x00, 0x0c, 0x00, 0x07, 0x00,
  0x00, 0x00, 0x08, 0x00, 0x0a, 0x00, 0x00, 0x00, 0x00, 0x00, 0x00, 0x09,
  0x03, 0x00, 0x00, 0x00
};
unsigned int mode1_default_quant_tflite_len = 11536;
